{
  "version": "1.0",
  "truncation": null,
  "padding": null,
  "added_tokens": [
    {
      "id": 0,
      "content": "<pad>",
      "single_word": false,
      "lstrip": false,
      "rstrip": false,
      "normalized": false,
      "special": true
    },
    {
      "id": 1,
      "content": "<unk>",
      "single_word": false,
      "lstrip": false,
      "rstrip": false,
      "normalized": false,
      "special": true
    },
    {
      "id": 2,
      "content": "<bos>",
      "single_word": false,
      "lstrip": false,
      "rstrip": false,
      "normalized": false,
      "special": true
    },
    {
      "id": 3,
      "content": "<eos>",
      "single_word": false,
      "lstrip": false,
      "rstrip": false,
      "normalized": false,
      "special": true
    }
  ],
  "normalizer": null,
  "pre_tokenizer": {
    "type": "Whitespace"
  },
  "post_processor": null,
  "decoder": {
    "type": "BPEDecoder",
    "suffix": "</w>"
  },
  "model": {
    "type": "BPE",
    "dropout": null,
    "unk_token": null,
    "continuing_subword_prefix": null,
    "end_of_word_suffix": null,
    "fuse_unk": false,
    "byte_fallback": false,
    "ignore_merges": false,
    "vocab": {
      "<pad>": 0,
      "<unk>": 1,
      "<bos>": 2,
      "<eos>": 3,
      "!": 4,
      "\"": 5,
      "%": 6,
      "&": 7,
      "'": 8,
      "(": 9,
      ")": 10,
      "*": 11,
      ",": 12,
      "-": 13,
      ".": 14,
      "/": 15,
      "0": 16,
      "1": 17,
      "2": 18,
      "3": 19,
      "4": 20,
      "5": 21,
      "6": 22,
      "7": 23,
      "8": 24,
      "9": 25,
      ":": 26,
      ";": 27,
      "?": 28,
      "A": 29,
      "B": 30,
      "C": 31,
      "D": 32,
      "E": 33,
      "F": 34,
      "G": 35,
      "H": 36,
      "I": 37,
      "J": 38,
      "K": 39,
      "L": 40,
      "M": 41,
      "N": 42,
      "O": 43,
      "P": 44,
      "Q": 45,
      "R": 46,
      "S": 47,
      "T": 48,
      "U": 49,
      "V": 50,
      "W": 51,
      "X": 52,
      "Y": 53,
      "Z": 54,
      "[": 55,
      "]": 56,
      "_": 57,
      "`": 58,
      "a": 59,
      "b": 60,
      "c": 61,
      "d": 62,
      "e": 63,
      "f": 64,
      "g": 65,
      "h": 66,
      "i": 67,
      "j": 68,
      "k": 69,
      "l": 70,
      "m": 71,
      "n": 72,
      "o": 73,
      "p": 74,
      "q": 75,
      "r": 76,
      "s": 77,
      "t": 78,
      "u": 79,
      "v": 80,
      "w": 81,
      "x": 82,
      "y": 83,
      "z": 84,
      "{": 85,
      "}": 86,
      "~": 87,
      "©": 88,
      "é": 89,
      "ê": 90,
      "ñ": 91,
      "–": 92,
      "—": 93,
      "‘": 94,
      "’": 95,
      "“": 96,
      "”": 97,
      "…": 98,
      "he": 99,
      "the": 100,
      "an": 101,
      "in": 102,
      "er": 103,
      "ed": 104,
      "ou": 105,
      "on": 106,
      "re": 107,
      "ha": 108,
      "and": 109,
      "is": 110,
      "to": 111,
      "en": 112,
      "as": 113,
      "or": 114,
      "ll": 115,
      "th": 116,
      "ar": 117,
      "ing": 118,
      "of": 119,
      "st": 120,
      "le": 121,
      "ld": 122,
      "ow": 123,
      "me": 124,
      "at": 125,
      "se": 126,
      "be": 127,
      "it": 128,
      "gh": 129,
      "his": 130,
      "id": 131,
      "ro": 132,
      "you": 133,
      "hi": 134,
      "was": 135,
      "wi": 136,
      "ve": 137,
      "The": 138,
      "hat": 139,
      "ac": 140,
      "no": 141,
      "her": 142,
      "sa": 143,
      "ght": 144,
      "es": 145,
      "had": 146,
      "ad": 147,
      "oo": 148,
      "ri": 149,
      "all": 150,
      "ir": 151,
      "ly": 152,
      "ut": 153,
      "ould": 154,
      "that": 155,
      "ay": 156,
      ".\"": 157,
      "ord": 158,
      "him": 159,
      "ther": 160,
      "li": 161,
      "un": 162,
      "ver": 163,
      "with": 164,
      "ne": 165,
      "for": 166,
      "ter": 167,
      "ag": 168,
      "we": 169,
      "one": 170,
      "not": 171,
      "ce": 172,
      "ke": 173,
      "she": 174,
      "al": 175,
      "so": 176,
      "ho": 177,
      "ur": 178,
      ".”": 179,
      "but": 180,
      "He": 181,
      "co": 182,
      "fe": 183,
      "mo": 184,
      "ch": 185,
      "nd": 186,
      "ight": 187,
      "am": 188,
      "ack": 189,
      "ent": 190,
      "bl": 191,
      "ain": 192,
      "said": 193,
      "man": 194,
      "wer": 195,
      "ard": 196,
      "own": 197,
      "have": 198,
      "lo": 199,
      "ck": 200,
      "out": 201,
      "them": 202,
      "rom": 203,
      "ast": 204,
      "et": 205,
      "my": 206,
      "il": 207,
      "ood": 208,
      "sh": 209,
      "up": 210,
      "go": 211,
      ",\"": 212,
      "do": 213,
      "ra": 214,
      "de": 215,
      "ong": 216,
      "from": 217,
      "whe": 218,
      "would": 219,
      "were": 220,
      "they": 221,
      "are": 222,
      "now": 223,
      "ill": 224,
      "You": 225,
      "ak": 226,
      "wo": 227,
      "ers": 228,
      "qu": 229,
      "ry": 230,
      "sp": 231,
      "ru": 232,
      "ant": 233,
      "will": 234,
      "ound": 235,
      "if": 236,
      "ep": 237,
      "ss": 238,
      "ough": 239,
      "lf": 240,
      "ind": 241,
      "men": 242,
      "too": 243,
      "bo": 244,
      "ven": 245,
      "your": 246,
      "ace": 247,
      "Lord": 248,
      "way": 249,
      "She": 250,
      "their": 251,
      "could": 252,
      "mu": 253,
      "fo": 254,
      "Ser": 255,
      "hed": 256,
      "ap": 257,
      "ti": 258,
      "ab": 259,
      "ide": 260,
      "ked": 261,
      "te": 262,
      "el": 263,
      "ted": 264,
      "?\"": 265,
      "our": 266,
      "king": 267,
      "ge": 268,
      "urn": 269,
      "see": 270,
      "end": 271,
      "word": 272,
      "us": 273,
      "la": 274,
      "off": 275,
      "been": 276,
      "It": 277,
      "when": 278,
      "hand": 279,
      ",”": 280,
      "Ty": 281,
      "ather": 282,
      "who": 283,
      "did": 284,
      "back": 285,
      "tle": 286,
      "..": 287,
      "pl": 288,
      "su": 289,
      "ought": 290,
      "bro": 291,
      "loo": 292,
      "other": 293,
      "night": 294,
      "some": 295,
      "est": 296,
      "by": 297,
      "ear": 298,
      "ake": 299,
      "ey": 300,
      "ran": 301,
      "gre": 302,
      "ame": 303,
      "than": 304,
      "St": 305,
      "more": 306,
      "red": 307,
      "ann": 308,
      "ped": 309,
      "ons": 310,
      "age": 311,
      "mm": 312,
      "down": 313,
      "any": 314,
      "well": 315,
      "like": 316,
      "lord": 317,
      "thing": 318,
      "clo": 319,
      "ate": 320,
      "br": 321,
      "mp": 322,
      "this": 323,
      "der": 324,
      "ever": 325,
      "ade": 326,
      "ree": 327,
      "orn": 328,
      "ber": 329,
      "Ro": 330,
      "sc": 331,
      "ark": 332,
      "fore": 333,
      "sha": 334,
      "ous": 335,
      "row": 336,
      "arm": 337,
      "?”": 338,
      "sm": 339,
      "time": 340,
      "Jon": 341,
      "led": 342,
      "head": 343,
      "ave": 344,
      "long": 345,
      "No": 346,
      "win": 347,
      "And": 348,
      "know": 349,
      "self": 350,
      "fi": 351,
      "po": 352,
      "there": 353,
      "turn": 354,
      "ys": 355,
      "ath": 356,
      "again": 357,
      "ved": 358,
      "pe": 359,
      "side": 360,
      "ts": 361,
      "old": 362,
      "They": 363,
      "di": 364,
      "wat": 365,
      "what": 366,
      "ister": 367,
      "si": 368,
      "ady": 369,
      "rion": 370,
      "ull": 371,
      "never": 372,
      "King": 373,
      "only": 374,
      "can": 375,
      "sword": 376,
      "want": 377,
      "come": 378,
      "au": 379,
      "even": 380,
      "thr": 381,
      "Tyrion": 382,
      "che": 383,
      "har": 384,
      "Whe": 385,
      "vo": 386,
      "father": 387,
      "made": 388,
      "into": 389,
      "gr": 390,
      "We": 391,
      "before": 392,
      "ist": 393,
      "lt": 394,
      "brother": 395,
      "hor": 396,
      "ite": 397,
      "day": 398,
      "should": 399,
      "een": 400,
      "thought": 401,
      "ren": 402,
      "told": 403,
      "eyes": 404,
      "His": 405,
      "dr": 406,
      "sl": 407,
      "af": 408,
      "ling": 409,
      "call": 410,
      "per": 411,
      "ps": 412,
      "gi": 413,
      "art": 414,
      "shi": 415,
      "med": 416,
      "blood": 417,
      "ick": 418,
      "ink": 419,
      "ice": 420,
      "ion": 421,
      "oun": 422,
      "ser": 423,
      "black": 424,
      "has": 425,
      "where": 426,
      "My": 427,
      "If": 428,
      "ittle": 429,
      "face": 430,
      "les": 431,
      "say": 432,
      "kne": 433,
      "bb": 434,
      "gu": 435,
      "ish": 436,
      "ic": 437,
      "over": 438,
      "bet": 439,
      "ves": 440,
      "con": 441,
      "ft": 442,
      "tain": 443,
      "dd": 444,
      "ai": 445,
      "might": 446,
      "pr": 447,
      "When": 448,
      "through": 449,
      "how": 450,
      "ched": 451,
      "ple": 452,
      "rey": 453,
      "war": 454,
      "wood": 455,
      "ust": 456,
      "wh": 457,
      "here": 458,
      "still": 459,
      "tru": 460,
      "must": 461,
      "sed": 462,
      "wor": 463,
      "boy": 464,
      "ross": 465,
      "its": 466,
      "gg": 467,
      "chi": 468,
      "ER": 469,
      "hun": 470,
      "came": 471,
      "less": 472,
      "Page": 473,
      "ste": 474,
      "So": 475,
      "tor": 476,
      "That": 477,
      "need": 478,
      "ester": 479,
      "took": 480,
      "ds": 481,
      "about": 482,
      "son": 483,
      "ma": 484,
      "horse": 485,
      "gir": 486,
      "ream": 487,
      "sk": 488,
      "right": 489,
      "ang": 490,
      "fl": 491,
      "ess": 492,
      "good": 493,
      "ble": 494,
      "ward": 495,
      "...": 496,
      "ene": 497,
      "girl": 498,
      "pen": 499,
      "ul": 500,
      "cl": 501,
      "whi": 502,
      "bre": 503,
      "pro": 504,
      "little": 505,
      "turned": 506,
      "away": 507,
      "knight": 508,
      "ance": 509,
      "gold": 510,
      "hair": 511,
      "dead": 512,
      "aught": 513,
      "ty": 514,
      "Ary": 515,
      "What": 516,
      "mber": 517,
      "Your": 518,
      "then": 519,
      "ment": 520,
      "There": 521,
      "mon": 522,
      "ince": 523,
      "two": 524,
      "went": 525,
      "once": 526,
      "half": 527,
      "irst": 528,
      "queen": 529,
      "bed": 530,
      "Do": 531,
      "though": 532,
      "wall": 533,
      "most": 534,
      "saw": 535,
      "ine": 536,
      "every": 537,
      "nor": 538,
      "lyn": 539,
      "fell": 540,
      "Arya": 541,
      "sil": 542,
      "ach": 543,
      "ears": 544,
      "fing": 545,
      "make": 546,
      "child": 547,
      "look": 548,
      "himself": 549,
      "ried": 550,
      "aime": 551,
      "om": 552,
      "comm": 553,
      "Jaime": 554,
      "pt": 555,
      "swe": 556,
      "Her": 557,
      "take": 558,
      "ale": 559,
      "Gr": 560,
      "let": 561,
      "won": 562,
      "ue": 563,
      "fire": 564,
      "light": 565,
      "um": 566,
      "ered": 567,
      "called": 568,
      "after": 569,
      "ig": 570,
      "pre": 571,
      "much": 572,
      "cr": 573,
      "kill": 574,
      "under": 575,
      "three": 576,
      "looked": 577,
      "ving": 578,
      "asked": 579,
      "ort": 580,
      "Bran": 581,
      "cap": 582,
      "foo": 583,
      "But": 584,
      "enough": 585,
      "eld": 586,
      "pped": 587,
      "Lann": 588,
      "cha": 589,
      "rid": 590,
      "gave": 591,
      "knew": 592,
      "tell": 593,
      "hel": 594,
      "left": 595,
      "outh": 596,
      "ars": 597,
      "ared": 598,
      "heard": 599,
      "unt": 600,
      "llow": 601,
      "water": 602,
      "cast": 603,
      "able": 604,
      "drag": 605,
      "ron": 606,
      "wa": 607,
      "run": 608,
      "hind": 609,
      "cle": 610,
      "cloak": 611,
      "air": 612,
      "Dany": 613,
      "Da": 614,
      "San": 615,
      "Sansa": 616,
      "sei": 617,
      "ten": 618,
      "dark": 619,
      "sing": 620,
      "woman": 621,
      "first": 622,
      "Lady": 623,
      "just": 624,
      "Stark": 625,
      "wind": 626,
      "white": 627,
      "ouse": 628,
      "great": 629,
      "Bl": 630,
      "Lannister": 631,
      "Ma": 632,
      "guard": 633,
      "lau": 634,
      "tre": 635,
      "ins": 636,
      "around": 637,
      "hear": 638,
      "Ho": 639,
      "sle": 640,
      "rong": 641,
      "found": 642,
      "eneath": 643,
      "ting": 644,
      "squ": 645,
      "sto": 646,
      "Cer": 647,
      "ans": 648,
      "inter": 649,
      "ise": 650,
      "gl": 651,
      "think": 652,
      "ex": 653,
      "burn": 654,
      "On": 655,
      "hard": 656,
      "may": 657,
      "name": 658,
      "keep": 659,
      "stone": 660,
      "behind": 661,
      "mar": 662,
      "gods": 663,
      "across": 664,
      "hands": 665,
      "ned": 666,
      "Cersei": 667,
      "spe": 668,
      "Grace": 669,
      "iled": 670,
      "leg": 671,
      "sent": 672,
      "command": 673,
      "get": 674,
      "aster": 675,
      "feet": 676,
      "last": 677,
      "com": 678,
      "ger": 679,
      "ks": 680,
      "ity": 681,
      "step": 682,
      "beneath": 683,
      "bert": 684,
      "ways": 685,
      "against": 686,
      "ken": 687,
      "Stann": 688,
      "As": 689,
      "Stannis": 690,
      "Some": 691,
      "beg": 692,
      "car": 693,
      "ms": 694,
      "In": 695,
      "seemed": 696,
      "ies": 697,
      "ones": 698,
      "another": 699,
      "jo": 700,
      "put": 701,
      "Cate": 702,
      "Catelyn": 703,
      "Wh": 704,
      "wine": 705,
      "tho": 706,
      "Robert": 707,
      "small": 708,
      "find": 709,
      "This": 710,
      "low": 711,
      "member": 712,
      "sister": 713,
      "cer": 714,
      "Robb": 715,
      "door": 716,
      "tr": 717,
      "dred": 718,
      "Co": 719,
      "wn": 720,
      "ON": 721,
      "done": 722,
      "ged": 723,
      "Th": 724,
      "ff": 725,
      "Sam": 726,
      "open": 727,
      "don": 728,
      "attle": 729,
      "bu": 730,
      "youn": 731,
      "dri": 732,
      "atter": 733,
      "bow": 734,
      "land": 735,
      "lie": 736,
      "mer": 737,
      "very": 738,
      "dis": 739,
      "rem": 740,
      "fle": 741,
      "hundred": 742,
      "ure": 743,
      "many": 744,
      "rest": 745,
      "ised": 746,
      "atch": 747,
      "tood": 748,
      "castle": 749,
      "ced": 750,
      "Har": 751,
      "upon": 752,
      "Joff": 753,
      "tak": 754,
      "daught": 755,
      "wed": 756,
      "gar": 757,
      "place": 758,
      "those": 759,
      "cold": 760,
      "seen": 761,
      "sound": 762,
      "ase": 763,
      "fight": 764,
      "av": 765,
      "ful": 766,
      "os": 767,
      "AR": 768,
      "All": 769,
      "ah": 770,
      "Winter": 771,
      "voice": 772,
      "ald": 773,
      "gone": 774,
      "remember": 775,
      "got": 776,
      "give": 777,
      "fall": 778,
      "ls": 779,
      "yet": 780,
      "cour": 781,
      "Ned": 782,
      "stand": 783,
      "cked": 784,
      "hold": 785,
      "lady": 786,
      "Wall": 787,
      "ween": 788,
      "Mo": 789,
      "ass": 790,
      "Hi": 791,
      "Mar": 792,
      "years": 793,
      "ened": 794,
      "ile": 795,
      "always": 796,
      "cre": 797,
      "mouth": 798,
      "cho": 799,
      "ire": 800,
      "until": 801,
      "full": 802,
      "leave": 803,
      "Black": 804,
      "ye": 805,
      "ond": 806,
      "between": 807,
      "Winterfell": 808,
      "soon": 809,
      "coun": 810,
      "words": 811,
      "yn": 812,
      "Gre": 813,
      "stood": 814,
      "wolf": 815,
      "How": 816,
      "enly": 817,
      "mother": 818,
      "better": 819,
      "Bar": 820,
      "cell": 821,
      "kn": 822,
      "grey": 823,
      "shall": 824,
      "sn": 825,
      "ning": 826,
      "lly": 827,
      "vos": 828,
      "haps": 829,
      "rag": 830,
      "same": 831,
      "sweet": 832,
      "walls": 833,
      "ings": 834,
      "battle": 835,
      "ness": 836,
      "died": 837,
      "far": 838,
      "set": 839,
      "For": 840,
      "ct": 841,
      "One": 842,
      "fingers": 843,
      "wait": 844,
      "fear": 845,
      "TH": 846,
      "Maester": 847,
      "read": 848,
      "sun": 849,
      "!\"": 850,
      "wild": 851,
      "Joffrey": 852,
      "dream": 853,
      "sur": 854,
      "Old": 855,
      "Ar": 856,
      "arms": 857,
      "Me": 858,
      "heart": 859,
      "Re": 860,
      "iron": 861,
      "true": 862,
      "ence": 863,
      "beside": 864,
      "wanted": 865,
      "arrow": 866,
      "moun": 867,
      "oft": 868,
      "ping": 869,
      "ches": 870,
      "few": 871,
      "ie": 872,
      "high": 873,
      "green": 874,
      "des": 875,
      "Even": 876,
      "ained": 877,
      "river": 878,
      "sea": 879,
      "Be": 880,
      "ton": 881,
      "dou": 882,
      "riend": 883,
      "ze": 884,
      "does": 885,
      "wonder": 886,
      "while": 887,
      "ghed": 888,
      "tal": 889,
      "nothing": 890,
      "cur": 891,
      "ated": 892,
      "times": 893,
      "friend": 894,
      "love": 895,
      "big": 896,
      "Pr": 897,
      "Py": 898,
      "new": 899,
      "daughter": 900,
      "herself": 901,
      "hal": 902,
      "ook": 903,
      "fer": 904,
      "mb": 905,
      "these": 906,
      "almost": 907,
      "used": 908,
      "AN": 909,
      "cut": 910,
      "hall": 911,
      "int": 912,
      "ows": 913,
      "children": 914,
      "snow": 915,
      "felt": 916,
      "skin": 917,
      "pri": 918,
      "north": 919,
      "wal": 920,
      "erys": 921,
      "lost": 922,
      "spo": 923,
      "mean": 924,
      "pull": 925,
      "Theon": 926,
      "Not": 927,
      "sleep": 928,
      "ousand": 929,
      "Qu": 930,
      "shed": 931,
      "swords": 932,
      "sat": 933,
      "Then": 934,
      "brought": 935,
      "wife": 936,
      "part": 937,
      "shout": 938,
      "raw": 939,
      "ower": 940,
      "such": 941,
      "dre": 942,
      "strong": 943,
      "ring": 944,
      "zen": 945,
      "die": 946,
      "Why": 947,
      "ery": 948,
      "cla": 949,
      "onor": 950,
      "Bo": 951,
      "sw": 952,
      "born": 953,
      "hap": 954,
      "thousand": 955,
      "host": 956,
      "cross": 957,
      "along": 958,
      "Bri": 959,
      "ell": 960,
      "lay": 961,
      "ga": 962,
      "sme": 963,
      "enne": 964,
      "taken": 965,
      "ions": 966,
      "OR": 967,
      "crow": 968,
      "whis": 969,
      "ally": 970,
      "certain": 971,
      "Brienne": 972,
      "ship": 973,
      "ris": 974,
      "best": 975,
      "mis": 976,
      "follow": 977,
      "each": 978,
      "speak": 979,
      "mur": 980,
      "city": 981,
      "zed": 982,
      "feel": 983,
      "House": 984,
      "lves": 985,
      "watch": 986,
      "Snow": 987,
      "SER": 988,
      "tower": 989,
      "To": 990,
      "shad": 991,
      "mmer": 992,
      "Se": 993,
      "young": 994,
      "Go": 995,
      "brothers": 996,
      "owed": 997,
      "ask": 998,
      "im": 999,
      "mes": 1000,
      "Tywin": 1001,
      "cup": 1002,
      "sho": 1003,
      "moment": 1004,
      "answer": 1005,
      "uck": 1006,
      "deep": 1007,
      "soft": 1008,
      "rie": 1009,
      "astard": 1010,
      "captain": 1011,
      "Davos": 1012,
      "dy": 1013,
      "ished": 1014,
      "life": 1015,
      "rave": 1016,
      "smell": 1017,
      "ses": 1018,
      "began": 1019,
      "thro": 1020,
      "sup": 1021,
      "ined": 1022,
      "bit": 1023,
      "past": 1024,
      "close": 1025,
      "athe": 1026,
      "hu": 1027,
      "unk": 1028,
      "help": 1029,
      "pu": 1030,
      "steel": 1031,
      "ali": 1032,
      "bled": 1033,
      "honor": 1034,
      "fort": 1035,
      "dragon": 1036,
      "tried": 1037,
      "lords": 1038,
      "both": 1039,
      "Red": 1040,
      "ci": 1041,
      "sla": 1042,
      "chee": 1043,
      "iver": 1044,
      "prom": 1045,
      "ash": 1046,
      "killed": 1047,
      "ander": 1048,
      "bring": 1049,
      "days": 1050,
      "raven": 1051,
      "comp": 1052,
      "wore": 1053,
      "stu": 1054,
      "tall": 1055,
      "armor": 1056,
      "foot": 1057,
      "four": 1058,
      "EN": 1059,
      "beard": 1060,
      "ith": 1061,
      "why": 1062,
      "Ae": 1063,
      "lar": 1064,
      "tered": 1065,
      "amp": 1066,
      "Is": 1067,
      "cli": 1068,
      "rode": 1069,
      "pray": 1070,
      "Meer": 1071,
      "room": 1072,
      "maid": 1073,
      "ached": 1074,
      "Grey": 1075,
      "silver": 1076,
      "aw": 1077,
      "den": 1078,
      "ane": 1079,
      "abo": 1080,
      "send": 1081,
      "horses": 1082,
      "star": 1083,
      "ats": 1084,
      "smile": 1085,
      "Mor": 1086,
      "Tar": 1087,
      "sli": 1088,
      "use": 1089,
      "free": 1090,
      "pale": 1091,
      "ool": 1092,
      "death": 1093,
      "bar": 1094,
      "fre": 1095,
      "rose": 1096,
      "High": 1097,
      "warm": 1098,
      "thick": 1099,
      "ail": 1100,
      "ank": 1101,
      "flo": 1102,
      "heav": 1103,
      "doub": 1104,
      "Land": 1105,
      "knights": 1106,
      "Mer": 1107,
      "owned": 1108,
      "finger": 1109,
      "Le": 1110,
      "yr": 1111,
      "fool": 1112,
      "par": 1113,
      "steps": 1114,
      "van": 1115,
      "und": 1116,
      "others": 1117,
      "pleas": 1118,
      "Ke": 1119,
      "going": 1120,
      "something": 1121,
      "laughed": 1122,
      "pas": 1123,
      "ster": 1124,
      "Jor": 1125,
      "bir": 1126,
      "belie": 1127,
      "Prince": 1128,
      "moved": 1129,
      "Un": 1130,
      "thin": 1131,
      "ssed": 1132,
      "fin": 1133,
      "spear": 1134,
      "eas": 1135,
      "sit": 1136,
      "mont": 1137,
      "fla": 1138,
      "aced": 1139,
      "ax": 1140,
      "sons": 1141,
      "warf": 1142,
      "aces": 1143,
      "maester": 1144,
      "scream": 1145,
      "Var": 1146,
      "Sep": 1147,
      "torm": 1148,
      "THE": 1149,
      "Who": 1150,
      "cru": 1151,
      "grow": 1152,
      "ongue": 1153,
      "Watch": 1154,
      "ants": 1155,
      "play": 1156,
      "lor": 1157,
      "Landing": 1158,
      "bann": 1159,
      "eat": 1160,
      "given": 1161,
      "Renly": 1162,
      "ding": 1163,
      "matter": 1164,
      "bloody": 1165,
      "throat": 1166,
      "fill": 1167,
      "ily": 1168,
      "isted": 1169,
      "dwarf": 1170,
      "world": 1171,
      "top": 1172,
      "bey": 1173,
      "dog": 1174,
      "bastard": 1175,
      "cover": 1176,
      "table": 1177,
      "oud": 1178,
      "lls": 1179,
      "Tom": 1180,
      "ST": 1181,
      "Hand": 1182,
      "inside": 1183,
      "cted": 1184,
      "raid": 1185,
      "legs": 1186,
      "guards": 1187,
      "wildling": 1188,
      "road": 1189,
      "dor": 1190,
      "LL": 1191,
      "aut": 1192,
      "kis": 1193,
      "ung": 1194,
      "Seven": 1195,
      "blue": 1196,
      "cher": 1197,
      "broken": 1198,
      "house": 1199,
      "att": 1200,
      "try": 1201,
      "hope": 1202,
      "sure": 1203,
      "Or": 1204,
      "trees": 1205,
      "By": 1206,
      "whisper": 1207,
      "uncle": 1208,
      "pulled": 1209,
      "ither": 1210,
      "safe": 1211,
      "prince": 1212,
      "ships": 1213,
      "band": 1214,
      "rist": 1215,
      "boo": 1216,
      "above": 1217,
      "else": 1218,
      "River": 1219,
      "aked": 1220,
      "women": 1221,
      "Only": 1222,
      "ny": 1223,
      "hur": 1224,
      "rep": 1225,
      "dragons": 1226,
      "sell": 1227,
      "raised": 1228,
      "cond": 1229,
      "ride": 1230,
      "Per": 1231,
      "round": 1232,
      "without": 1233,
      "things": 1234,
      "cor": 1235,
      "qui": 1236,
      "gether": 1237,
      "quick": 1238,
      "Mormont": 1239,
      "mak": 1240,
      "Edd": 1241,
      "oned": 1242,
      "bear": 1243,
      "brown": 1244,
      "heavy": 1245,
      "fast": 1246,
      "ied": 1247,
      "mor": 1248,
      "pain": 1249,
      "toward": 1250,
      "home": 1251,
      "coming": 1252,
      "ces": 1253,
      "orning": 1254,
      "ground": 1255,
      "gest": 1256,
      "shield": 1257,
      "Will": 1258,
      "tri": 1259,
      "ates": 1260,
      "tee": 1261,
      "Yes": 1262,
      "tou": 1263,
      "golden": 1264,
      "care": 1265,
      "gall": 1266,
      "smiled": 1267,
      "ret": 1268,
      "doubt": 1269,
      "xt": 1270,
      "app": 1271,
      "reached": 1272,
      "joy": 1273,
      "together": 1274,
      "gn": 1275,
      "sail": 1276,
      "sen": 1277,
      "chest": 1278,
      "kind": 1279,
      "ashed": 1280,
      "lear": 1281,
      "meant": 1282,
      "serv": 1283,
      "stead": 1284,
      "squire": 1285,
      "remembered": 1286,
      "hae": 1287,
      "alm": 1288,
      "Tyre": 1289,
      "truth": 1290,
      "ious": 1291,
      "burned": 1292,
      "Su": 1293,
      "emp": 1294,
      "morning": 1295,
      "thir": 1296,
      "stri": 1297,
      "yard": 1298,
      "alone": 1299,
      "At": 1300,
      "Drag": 1301,
      "tw": 1302,
      "cannot": 1303,
      "Iron": 1304,
      "rain": 1305,
      "return": 1306,
      "among": 1307,
      "teeth": 1308,
      "scar": 1309,
      "tast": 1310,
      "amed": 1311,
      "six": 1312,
      "known": 1313,
      "RE": 1314,
      "fur": 1315,
      "cks": 1316,
      "song": 1317,
      "held": 1318,
      "leather": 1319,
      "near": 1320,
      "next": 1321,
      "dire": 1322,
      "De": 1323,
      "Perhaps": 1324,
      "Night": 1325,
      "fish": 1326,
      "onto": 1327,
      "shar": 1328,
      "bad": 1329,
      "sudd": 1330,
      "hung": 1331,
      "Jorah": 1332,
      "lad": 1333,
      "closed": 1334,
      "Ly": 1335,
      "fted": 1336,
      "since": 1337,
      "Let": 1338,
      "py": 1339,
      "dozen": 1340,
      "breast": 1341,
      "res": 1342,
      "Wald": 1343,
      "Hodor": 1344,
      "lands": 1345,
      "poin": 1346,
      "laugh": 1347,
      "Little": 1348,
      "list": 1349,
      "happen": 1350,
      "With": 1351,
      "imp": 1352,
      "vis": 1353,
      "Myr": 1354,
      "wound": 1355,
      "oose": 1356,
      "Dro": 1357,
      "dif": 1358,
      "Kings": 1359,
      "tongue": 1360,
      "sept": 1361,
      "gth": 1362,
      "ople": 1363,
      "wear": 1364,
      "Bolt": 1365,
      "ater": 1366,
      "bbed": 1367,
      "gged": 1368,
      "thre": 1369,
      "tra": 1370,
      "als": 1371,
      "Riverrun": 1372,
      "south": 1373,
      "beyond": 1374,
      "Father": 1375,
      "wish": 1376,
      "alf": 1377,
      "hot": 1378,
      "fat": 1379,
      "food": 1380,
      "bor": 1381,
      "ching": 1382,
      "sky": 1383,
      "prote": 1384,
      "ause": 1385,
      "Comm": 1386,
      "cry": 1387,
      "law": 1388,
      "lips": 1389,
      "ded": 1390,
      "gon": 1391,
      "Lor": 1392,
      "pur": 1393,
      "talk": 1394,
      "rot": 1395,
      "watched": 1396,
      "floor": 1397,
      "dist": 1398,
      "cent": 1399,
      "ries": 1400,
      "arden": 1401,
      "tent": 1402,
      "second": 1403,
      "shoulder": 1404,
      "flesh": 1405,
      "loved": 1406,
      "slow": 1407,
      "master": 1408,
      "anced": 1409,
      "roll": 1410,
      "gor": 1411,
      "ended": 1412,
      "conf": 1413,
      "Varys": 1414,
      "Bolton": 1415,
      "Did": 1416,
      "Tell": 1417,
      "caught": 1418,
      "inn": 1419,
      "people": 1420,
      "please": 1421,
      "ol": 1422,
      "AL": 1423,
      "Dor": 1424,
      "Where": 1425,
      "court": 1426,
      "Yet": 1427,
      "wr": 1428,
      "quest": 1429,
      "opened": 1430,
      "Frey": 1431,
      "Po": 1432,
      "cous": 1433,
      "iling": 1434,
      "work": 1435,
      "covered": 1436,
      "sight": 1437,
      "town": 1438,
      "least": 1439,
      "stay": 1440,
      "lied": 1441,
      "blade": 1442,
      "anger": 1443,
      "cause": 1444,
      "moon": 1445,
      "wondered": 1446,
      "mine": 1447,
      "ta": 1448,
      "Men": 1449,
      "rust": 1450,
      "believe": 1451,
      "ristan": 1452,
      "ive": 1453,
      "tion": 1454,
      "which": 1455,
      "lk": 1456,
      "below": 1457,
      "neck": 1458,
      "Tyrell": 1459,
      "dro": 1460,
      "rang": 1461,
      "Great": 1462,
      "Barristan": 1463,
      "kept": 1464,
      "Wester": 1465,
      "yal": 1466,
      "ench": 1467,
      "seven": 1468,
      "spl": 1469,
      "break": 1470,
      "crown": 1471,
      "fter": 1472,
      "hid": 1473,
      "breath": 1474,
      "Now": 1475,
      "kings": 1476,
      "serve": 1477,
      "beat": 1478,
      "wrong": 1479,
      "ation": 1480,
      "gotten": 1481,
      "Bal": 1482,
      "murder": 1483,
      "Walder": 1484,
      "horn": 1485,
      "nose": 1486,
      "eye": 1487,
      "Are": 1488,
      "field": 1489,
      "Tommen": 1490,
      "empty": 1491,
      "bling": 1492,
      "stru": 1493,
      "ket": 1494,
      "cloaks": 1495,
      "axe": 1496,
      "acked": 1497,
      "Meereen": 1498,
      "Oh": 1499,
      "gate": 1500,
      "stren": 1501,
      "being": 1502,
      "rak": 1503,
      "iff": 1504,
      "folk": 1505,
      "tar": 1506,
      "inc": 1507,
      "belly": 1508,
      "followed": 1509,
      "differ": 1510,
      "hour": 1511,
      "boys": 1512,
      "apped": 1513,
      "Mother": 1514,
      "reali": 1515,
      "wel": 1516,
      "wet": 1517,
      "seem": 1518,
      "shadow": 1519,
      "IN": 1520,
      "fully": 1521,
      "sharp": 1522,
      "sor": 1523,
      "smo": 1524,
      "remind": 1525,
      "ier": 1526,
      "friends": 1527,
      "Doth": 1528,
      "teen": 1529,
      "Arry": 1530,
      "Dothrak": 1531,
      "filled": 1532,
      "Eddard": 1533,
      "returned": 1534,
      "feast": 1535,
      "strength": 1536,
      "ters": 1537,
      "pret": 1538,
      "Ed": 1539,
      "Lu": 1540,
      "cri": 1541,
      "year": 1542,
      "gent": 1543,
      "commanded": 1544,
      "Tower": 1545,
      "mit": 1546,
      "says": 1547,
      "waiting": 1548,
      "spoke": 1549,
      "Dragon": 1550,
      "Asha": 1551,
      "Br": 1552,
      "temp": 1553,
      "agger": 1554,
      "plain": 1555,
      "Nor": 1556,
      "beaut": 1557,
      "perhaps": 1558,
      "After": 1559,
      "wise": 1560,
      "kni": 1561,
      "ug": 1562,
      "Pet": 1563,
      "show": 1564,
      "Queen": 1565,
      "outside": 1566,
      "wolves": 1567,
      "zz": 1568,
      "ready": 1569,
      "huge": 1570,
      "ild": 1571,
      "tree": 1572,
      "Aemon": 1573,
      "Petyr": 1574,
      "Hound": 1575,
      "cu": 1576,
      "fro": 1577,
      "ason": 1578,
      "usband": 1579,
      "quiet": 1580,
      "Barathe": 1581,
      "ns": 1582,
      "swi": 1583,
      "Once": 1584,
      "fighting": 1585,
      "liked": 1586,
      "def": 1587,
      "flames": 1588,
      "ney": 1589,
      "ets": 1590,
      "Lysa": 1591,
      "looking": 1592,
      "served": 1593,
      "Baratheon": 1594,
      "ek": 1595,
      "rio": 1596,
      "color": 1597,
      "banner": 1598,
      "aside": 1599,
      "slay": 1600,
      "worth": 1601,
      "hurt": 1602,
      "none": 1603,
      "pers": 1604,
      "yours": 1605,
      "heads": 1606,
      "bru": 1607,
      "pay": 1608,
      "ors": 1609,
      "live": 1610,
      "grew": 1611,
      "drew": 1612,
      "orm": 1613,
      "afraid": 1614,
      "Harren": 1615,
      "promised": 1616,
      "Bra": 1617,
      "Half": 1618,
      "sand": 1619,
      "gra": 1620,
      "thes": 1621,
      "yellow": 1622,
      "Bron": 1623,
      "lin": 1624,
      "sadd": 1625,
      "wooden": 1626,
      "iful": 1627,
      "cy": 1628,
      "late": 1629,
      "reach": 1630,
      "ided": 1631,
      "shoulders": 1632,
      "named": 1633,
      "stream": 1634,
      "short": 1635,
      "walked": 1636,
      "shouted": 1637,
      "ange": 1638,
      "priest": 1639,
      "Yunk": 1640,
      "either": 1641,
      "heir": 1642,
      "remained": 1643,
      "bones": 1644,
      "husband": 1645,
      "someone": 1646,
      "trust": 1647,
      "Daen": 1648,
      "pointed": 1649,
      "hood": 1650,
      "passed": 1651,
      "taste": 1652,
      "different": 1653,
      "roo": 1654,
      "ired": 1655,
      "girls": 1656,
      "ud": 1657,
      "ages": 1658,
      "Mance": 1659,
      "grown": 1660,
      "White": 1661,
      "Littlefinger": 1662,
      "bright": 1663,
      "mil": 1664,
      "lean": 1665,
      "Their": 1666,
      "ully": 1667,
      "Dothraki": 1668,
      "tight": 1669,
      "met": 1670,
      "gaery": 1671,
      "Daenerys": 1672,
      "stones": 1673,
      "els": 1674,
      "Well": 1675,
      "helm": 1676,
      "pushed": 1677,
      "Greyjoy": 1678,
      "Commander": 1679,
      "realized": 1680,
      "Storm": 1681,
      "gif": 1682,
      "Margaery": 1683,
      "Pen": 1684,
      "fright": 1685,
      "zd": 1686,
      "lead": 1687,
      "meat": 1688,
      "point": 1689,
      "whispered": 1690,
      "char": 1691,
      "mad": 1692,
      "ray": 1693,
      "Mel": 1694,
      "YN": 1695,
      "realm": 1696,
      "mure": 1697,
      "understand": 1698,
      "Three": 1699,
      "wedding": 1700,
      "port": 1701,
      "lion": 1702,
      "Kingsguard": 1703,
      "Other": 1704,
      "doms": 1705,
      "Ghost": 1706,
      "ured": 1707,
      "broke": 1708,
      "mail": 1709,
      "wildlings": 1710,
      "uch": 1711,
      "clothes": 1712,
      "corp": 1713,
      "Drogo": 1714,
      "Balon": 1715,
      "je": 1716,
      "rel": 1717,
      "aly": 1718,
      "da": 1719,
      "Lannisters": 1720,
      "rian": 1721,
      "mountain": 1722,
      "direwolf": 1723,
      "tu": 1724,
      "wy": 1725,
      "gates": 1726,
      "mut": 1727,
      "ob": 1728,
      "ening": 1729,
      "range": 1730,
      "Rock": 1731,
      "trou": 1732,
      "Rhae": 1733,
      "bur": 1734,
      "dec": 1735,
      "Edmure": 1736,
      "An": 1737,
      "forward": 1738,
      "uring": 1739,
      "burning": 1740,
      "mind": 1741,
      "dded": 1742,
      "Vic": 1743,
      "lit": 1744,
      "seat": 1745,
      "selves": 1746,
      "LE": 1747,
      "Sm": 1748,
      "blind": 1749,
      "akes": 1750,
      "Cleg": 1751,
      "cand": 1752,
      "camp": 1753,
      "pping": 1754,
      "pie": 1755,
      "window": 1756,
      "Keep": 1757,
      "RO": 1758,
      "reed": 1759,
      "ison": 1760,
      "within": 1761,
      "Hot": 1762,
      "Dorn": 1763,
      "Two": 1764,
      "fly": 1765,
      "Harrenhal": 1766,
      "Clegane": 1767,
      "pes": 1768,
      "yen": 1769,
      "sick": 1770,
      "capti": 1771,
      "dry": 1772,
      "ony": 1773,
      "stre": 1774,
      "ago": 1775,
      "drink": 1776,
      "Arryn": 1777,
      "Every": 1778,
      "dagger": 1779,
      "ature": 1780,
      "garden": 1781,
      "narrow": 1782,
      "west": 1783,
      "sold": 1784,
      "lst": 1785,
      "grand": 1786,
      "silent": 1787,
      "Bronn": 1788,
      "bare": 1789,
      "mist": 1790,
      "yes": 1791,
      "longer": 1792,
      "bread": 1793,
      "Summer": 1794,
      "Dornish": 1795,
      "ides": 1796,
      "lifted": 1797,
      "woods": 1798,
      "chain": 1799,
      "expe": 1800,
      "join": 1801,
      "garyen": 1802,
      "Targaryen": 1803,
      "Vis": 1804,
      "reminded": 1805,
      "lies": 1806,
      "silk": 1807,
      "darkness": 1808,
      "celle": 1809,
      "Pycelle": 1810,
      "RI": 1811,
      "brave": 1812,
      "rank": 1813,
      "walk": 1814,
      "pit": 1815,
      "Come": 1816,
      "appear": 1817,
      "cons": 1818,
      "poor": 1819,
      "peace": 1820,
      "amongst": 1821,
      "LA": 1822,
      "jen": 1823,
      "weak": 1824,
      "blow": 1825,
      "incess": 1826,
      "Jo": 1827,
      "Don": 1828,
      "god": 1829,
      "Kingdoms": 1830,
      "chamber": 1831,
      "stopped": 1832,
      "Ben": 1833,
      "Cr": 1834,
      "Lo": 1835,
      "sull": 1836,
      "brid": 1837,
      "five": 1838,
      "rock": 1839,
      "riding": 1840,
      "remain": 1841,
      "Melis": 1842,
      "clai": 1843,
      "Melisand": 1844,
      "faces": 1845,
      "wag": 1846,
      "knows": 1847,
      "riders": 1848,
      "Melisandre": 1849,
      "eight": 1850,
      "icked": 1851,
      "unuch": 1852,
      "ices": 1853,
      "torch": 1854,
      "Ba": 1855,
      "move": 1856,
      "wenty": 1857,
      "laught": 1858,
      "counc": 1859,
      "Good": 1860,
      "dra": 1861,
      "later": 1862,
      "pose": 1863,
      "mbers": 1864,
      "large": 1865,
      "eunuch": 1866,
      "gri": 1867,
      "body": 1868,
      "anged": 1869,
      "common": 1870,
      "Thr": 1871,
      "drik": 1872,
      "ahr": 1873,
      "third": 1874,
      "Westeros": 1875,
      "ues": 1876,
      "dem": 1877,
      "Rodrik": 1878,
      "fr": 1879,
      "tun": 1880,
      "salt": 1881,
      "smoke": 1882,
      "Bael": 1883,
      "Aye": 1884,
      "ba": 1885,
      "fit": 1886,
      "wants": 1887,
      "comes": 1888,
      "stop": 1889,
      "Hizd": 1890,
      "instead": 1891,
      "often": 1892,
      "fires": 1893,
      "Septon": 1894,
      "Hizdahr": 1895,
      "fron": 1896,
      "younger": 1897,
      "choice": 1898,
      "Rick": 1899,
      "ler": 1900,
      "clean": 1901,
      "Aegon": 1902,
      "Ram": 1903,
      "mid": 1904,
      "coin": 1905,
      "tears": 1906,
      "May": 1907,
      "bs": 1908,
      "sort": 1909,
      "aded": 1910,
      "myself": 1911,
      "whilst": 1912,
      "glanced": 1913,
      "cheeks": 1914,
      "From": 1915,
      "truly": 1916,
      "stepped": 1917,
      "making": 1918,
      "tarion": 1919,
      "Victarion": 1920,
      "pat": 1921,
      "ering": 1922,
      "arri": 1923,
      "older": 1924,
      "touched": 1925,
      "Wy": 1926,
      "lan": 1927,
      "pair": 1928,
      "roof": 1929,
      "shook": 1930,
      "illy": 1931,
      "slain": 1932,
      "worse": 1933,
      "pleased": 1934,
      "easy": 1935,
      "wis": 1936,
      "ref": 1937,
      "sad": 1938,
      "upid": 1939,
      "fallen": 1940,
      "sooner": 1941,
      "Luwin": 1942,
      "decl": 1943,
      "slid": 1944,
      "ments": 1945,
      "suddenly": 1946,
      "forgotten": 1947,
      "didn": 1948,
      "towers": 1949,
      "twisted": 1950,
      "bes": 1951,
      "forth": 1952,
      "slaves": 1953,
      "saddle": 1954,
      "Cast": 1955,
      "east": 1956,
      "grie": 1957,
      "hide": 1958,
      "kin": 1959,
      "ming": 1960,
      "zn": 1961,
      "Reek": 1962,
      "climb": 1963,
      "knees": 1964,
      "bird": 1965,
      "replied": 1966,
      "Have": 1967,
      "Yo": 1968,
      "itor": 1969,
      "len": 1970,
      "question": 1971,
      "Ramsay": 1972,
      "Caster": 1973,
      "fought": 1974,
      "...”": 1975,
      "running": 1976,
      "Casterly": 1977,
      "naked": 1978,
      "vill": 1979,
      "whose": 1980,
      "knee": 1981,
      "dut": 1982,
      "Loras": 1983,
      "gli": 1984,
      "kes": 1985,
      "pa": 1986,
      "needs": 1987,
      "cousin": 1988,
      "Long": 1989,
      "Would": 1990,
      "gs": 1991,
      "stupid": 1992,
      "secre": 1993,
      "themselves": 1994,
      "mounted": 1995,
      "front": 1996,
      "Gri": 1997,
      "Kevan": 1998,
      "val": 1999,
      "Dorne": 2000,
      "beautiful": 2001,
      "ges": 2002,
      "mbed": 2003,
      "heal": 2004,
      "agreed": 2005,
      "coll": 2006,
      "sign": 2007,
      "Quent": 2008,
      "knife": 2009,
      "!”": 2010,
      "Bear": 2011,
      "Valy": 2012,
      "hes": 2013,
      "throne": 2014,
      "fif": 2015,
      "power": 2016,
      "str": 2017,
      "eping": 2018,
      "answered": 2019,
      "trying": 2020,
      "milk": 2021,
      "EL": 2022,
      "rum": 2023,
      "offered": 2024,
      "Gregor": 2025,
      "STER": 2026,
      "threw": 2027,
      "Rhaegar": 2028,
      "council": 2029,
      "Tho": 2030,
      "inking": 2031,
      "bone": 2032,
      "cing": 2033,
      "ner": 2034,
      "twenty": 2035,
      "andon": 2036,
      "dying": 2037,
      "Meera": 2038,
      "Braa": 2039,
      "storm": 2040,
      "endry": 2041,
      "singer": 2042,
      "dogs": 2043,
      "Gendry": 2044,
      "wide": 2045,
      "edge": 2046,
      "que": 2047,
      "swear": 2048,
      "count": 2049,
      "Mag": 2050,
      "hone": 2051,
      "save": 2052,
      "climbed": 2053,
      "laughter": 2054,
      "ump": 2055,
      "doing": 2056,
      "whole": 2057,
      "rident": 2058,
      "carry": 2059,
      "bound": 2060,
      "oooo": 2061,
      "ranger": 2062,
      "waited": 2063,
      "Bro": 2064,
      "cus": 2065,
      "grin": 2066,
      "stars": 2067,
      "saying": 2068,
      "claim": 2069,
      "Yunkai": 2070,
      "bald": 2071,
      "laid": 2072,
      "anything": 2073,
      "insisted": 2074,
      "crossed": 2075,
      "during": 2076,
      "vi": 2077,
      "shru": 2078,
      "yourself": 2079,
      "plate": 2080,
      "closer": 2081,
      "carried": 2082,
      "fresh": 2083,
      "First": 2084,
      "Tully": 2085,
      "wool": 2086,
      "beast": 2087,
      "ables": 2088,
      "harm": 2089,
      "sworn": 2090,
      "crows": 2091,
      "cient": 2092,
      "Ray": 2093,
      "ahead": 2094,
      "fine": 2095,
      "line": 2096,
      "sou": 2097,
      "tory": 2098,
      "doors": 2099,
      "pink": 2100,
      "ourney": 2101,
      "needed": 2102,
      "Blood": 2103,
      "daughters": 2104,
      "leaves": 2105,
      "arrows": 2106,
      "service": 2107,
      "gift": 2108,
      "lot": 2109,
      "drunk": 2110,
      "Just": 2111,
      "Sand": 2112,
      "swall": 2113,
      "bell": 2114,
      "spears": 2115,
      "Maid": 2116,
      "Green": 2117,
      "corn": 2118,
      "dir": 2119,
      "ef": 2120,
      "ni": 2121,
      "lease": 2122,
      "mud": 2123,
      "helped": 2124,
      "kiss": 2125,
      "Castle": 2126,
      "wasn": 2127,
      "ilt": 2128,
      "slayer": 2129,
      "Small": 2130,
      "bridge": 2131,
      "Con": 2132,
      "Gilly": 2133,
      "Sha": 2134,
      "quar": 2135,
      "letter": 2136,
      "sque": 2137,
      "morrow": 2138,
      "Throne": 2139,
      "MA": 2140,
      "Sk": 2141,
      "start": 2142,
      "names": 2143,
      "screamed": 2144,
      "boots": 2145,
      "galley": 2146,
      "claimed": 2147,
      "draw": 2148,
      "ari": 2149,
      "sol": 2150,
      "cking": 2151,
      "AND": 2152,
      "aving": 2153,
      "gather": 2154,
      "},": 2155,
      "amid": 2156,
      "grass": 2157,
      "aith": 2158,
      "Quentyn": 2159,
      "HA": 2160,
      "Ste": 2161,
      "Vol": 2162,
      "loud": 2163,
      "mag": 2164,
      "pass": 2165,
      "tin": 2166,
      "usk": 2167,
      "angry": 2168,
      "Bel": 2169,
      "wid": 2170,
      "These": 2171,
      "sage": 2172,
      "serving": 2173,
      "Here": 2174,
      "finally": 2175,
      "kissed": 2176,
      "pretty": 2177,
      "Hall": 2178,
      "Kar": 2179,
      "game": 2180,
      "pin": 2181,
      "stra": 2182,
      "stiff": 2183,
      "chance": 2184,
      "earth": 2185,
      "flow": 2186,
      "learned": 2187,
      "rolled": 2188,
      "Dragonstone": 2189,
      "defend": 2190,
      "frightened": 2191,
      "bri": 2192,
      "warned": 2193,
      "comfort": 2194,
      "Trident": 2195,
      "umn": 2196,
      "danger": 2197,
      "nodded": 2198,
      "attered": 2199,
      "banners": 2200,
      "rise": 2201,
      "wings": 2202,
      "haz": 2203,
      "arth": 2204,
      "SE": 2205,
      "Wind": 2206,
      "enter": 2207,
      "meet": 2208,
      "spread": 2209,
      "whore": 2210,
      "silence": 2211,
      "watching": 2212,
      "alive": 2213,
      "slipped": 2214,
      "learn": 2215,
      "Was": 2216,
      "fair": 2217,
      "tom": 2218,
      "lived": 2219,
      "ably": 2220,
      "forest": 2221,
      "-\"": 2222,
      "Cle": 2223,
      "fain": 2224,
      "stro": 2225,
      "stick": 2226,
      "terri": 2227,
      "dom": 2228,
      "standing": 2229,
      "company": 2230,
      "Tarly": 2231,
      "scarce": 2232,
      "Ne": 2233,
      "ging": 2234,
      "por": 2235,
      "umbled": 2236,
      "build": 2237,
      "slave": 2238,
      "compan": 2239,
      "ph": 2240,
      "Griff": 2241,
      "Illy": 2242,
      "Sy": 2243,
      "khal": 2244,
      "twi": 2245,
      "lover": 2246,
      "Though": 2247,
      "falling": 2248,
      "Knight": 2249,
      "strange": 2250,
      "noble": 2251,
      "forget": 2252,
      "scr": 2253,
      "cella": 2254,
      "Myrcella": 2255,
      "demand": 2256,
      "declared": 2257,
      "Cit": 2258,
      "cat": 2259,
      "em": 2260,
      "requ": 2261,
      "hill": 2262,
      "admit": 2263,
      "woke": 2264,
      "shadows": 2265,
      "cheek": 2266,
      "Brother": 2267,
      "Illyrio": 2268,
      "Ey": 2269,
      "End": 2270,
      "wyn": 2271,
      "makes": 2272,
      "happened": 2273,
      "dawn": 2274,
      "Imp": 2275,
      "aged": 2276,
      "ountain": 2277,
      "maiden": 2278,
      "Those": 2279,
      "Aerys": 2280,
      "appro": 2281,
      "laws": 2282,
      "Crow": 2283,
      "chair": 2284,
      "faced": 2285,
      "ield": 2286,
      "sav": 2287,
      "smoo": 2288,
      "dreams": 2289,
      "Viserys": 2290,
      "atop": 2291,
      "cried": 2292,
      "echo": 2293,
      "pi": 2294,
      "loose": 2295,
      "ously": 2296,
      "posed": 2297,
      "Oldtown": 2298,
      "ashing": 2299,
      "Others": 2300,
      "Volant": 2301,
      "Eyrie": 2302,
      "Ast": 2303,
      "DA": 2304,
      "loyal": 2305,
      "shing": 2306,
      "apor": 2307,
      "sometimes": 2308,
      "ravens": 2309,
      "sense": 2310,
      "hale": 2311,
      "shut": 2312,
      "aves": 2313,
      "ounced": 2314,
      "chains": 2315,
      "Astapor": 2316,
      "Torm": 2317,
      "fav": 2318,
      "apart": 2319,
      "Stone": 2320,
      "counse": 2321,
      "dressed": 2322,
      "ction": 2323,
      "atched": 2324,
      "renn": 2325,
      "Pyke": 2326,
      "Tormund": 2327,
      "Ber": 2328,
      "Dr": 2329,
      "Fre": 2330,
      "Pie": 2331,
      "cir": 2332,
      "fam": 2333,
      "ggest": 2334,
      "deli": 2335,
      "fier": 2336,
      "shiver": 2337,
      "promise": 2338,
      "started": 2339,
      "Highgarden": 2340,
      "TY": 2341,
      "igh": 2342,
      "kno": 2343,
      "vent": 2344,
      "glad": 2345,
      "course": 2346,
      "deser": 2347,
      "shouting": 2348,
      "Craster": 2349,
      "znak": 2350,
      "Alay": 2351,
      "…”": 2352,
      "rule": 2353,
      "suggest": 2354,
      "Grand": 2355,
      "courage": 2356,
      "softly": 2357,
      "cruel": 2358,
      "slowly": 2359,
      "captive": 2360,
      "appeared": 2361,
      "CK": 2362,
      "bid": 2363,
      "wench": 2364,
      "means": 2365,
      "quite": 2366,
      "wins": 2367,
      "Our": 2368,
      "Swe": 2369,
      "Wo": 2370,
      "craw": 2371,
      "gro": 2372,
      "ating": 2373,
      "Gods": 2374,
      "thinking": 2375,
      "touch": 2376,
      "sudden": 2377,
      "Sh": 2378,
      "emer": 2379,
      "—”": 2380,
      "lives": 2381,
      "feed": 2382,
      "carved": 2383,
      "bra": 2384,
      "wit": 2385,
      "stag": 2386,
      "vel": 2387,
      "changed": 2388,
      "aff": 2389,
      "rising": 2390,
      "ELL": 2391,
      "dare": 2392,
      "escap": 2393,
      "More": 2394,
      "Can": 2395,
      "Khal": 2396,
      "Shi": 2397,
      "Sel": 2398,
      "tale": 2399,
      "eyne": 2400,
      "grit": 2401,
      "Sea": 2402,
      "rangers": 2403,
      "hidden": 2404,
      "twice": 2405,
      "fierce": 2406,
      "Grenn": 2407,
      "Light": 2408,
      "eyed": 2409,
      "steward": 2410,
      "Rickon": 2411,
      "mies": 2412,
      "wash": 2413,
      "weight": 2414,
      "Jeyne": 2415,
      "Thor": 2416,
      "oars": 2417,
      "army": 2418,
      "nel": 2419,
      "summ": 2420,
      "clut": 2421,
      "marry": 2422,
      "taking": 2423,
      "favor": 2424,
      "Ger": 2425,
      "fal": 2426,
      "mare": 2427,
      "scra": 2428,
      "sisters": 2429,
      "candle": 2430,
      "RA": 2431,
      "Roose": 2432,
      "aq": 2433,
      "oak": 2434,
      "phe": 2435,
      "pour": 2436,
      "sour": 2437,
      "vic": 2438,
      "wra": 2439,
      "throw": 2440,
      "aring": 2441,
      "arch": 2442,
      "sion": 2443,
      "voices": 2444,
      "gging": 2445,
      "crack": 2446,
      "faint": 2447,
      "bree": 2448,
      "pool": 2449,
      "stair": 2450,
      "already": 2451,
      "hoped": 2452,
      "however": 2453,
      "surpr": 2454,
      "Jojen": 2455,
      "Please": 2456,
      "Vale": 2457,
      "llen": 2458,
      "moving": 2459,
      "deal": 2460,
      "wouldn": 2461,
      "attack": 2462,
      "ario": 2463,
      "OO": 2464,
      "bran": 2465,
      "till": 2466,
      "iss": 2467,
      "unted": 2468,
      "spic": 2469,
      "thank": 2470,
      "scent": 2471,
      "murdered": 2472,
      "Beric": 2473,
      "Ygrit": 2474,
      "archer": 2475,
      "stall": 2476,
      "leap": 2477,
      "ider": 2478,
      "shin": 2479,
      "plained": 2480,
      "anyone": 2481,
      "bride": 2482,
      "enemies": 2483,
      "marri": 2484,
      "trouble": 2485,
      "Freys": 2486,
      "Ygritte": 2487,
      "hang": 2488,
      "swore": 2489,
      "leag": 2490,
      "belt": 2491,
      "double": 2492,
      "growing": 2493,
      "visit": 2494,
      "writ": 2495,
      "sullied": 2496,
      "fist": 2497,
      "tt": 2498,
      "sts": 2499,
      "washed": 2500,
      "offer": 2501,
      "cloth": 2502,
      "knelt": 2503,
      "Daario": 2504,
      "claw": 2505,
      "Unsullied": 2506,
      "breasts": 2507,
      "welcome": 2508,
      "Ano": 2509,
      "Horn": 2510,
      "drank": 2511,
      "showed": 2512,
      "somehow": 2513,
      "waters": 2514,
      "bowed": 2515,
      "played": 2516,
      "pig": 2517,
      "recall": 2518,
      "act": 2519,
      "lose": 2520,
      "guest": 2521,
      "purple": 2522,
      "corpse": 2523,
      "Another": 2524,
      "DY": 2525,
      "HO": 2526,
      "Lys": 2527,
      "Take": 2528,
      "kit": 2529,
      "inst": 2530,
      "asse": 2531,
      "sted": 2532,
      "neither": 2533,
      "sig": 2534,
      "betray": 2535,
      "sorry": 2536,
      "Lance": 2537,
      "stir": 2538,
      "allowed": 2539,
      "aled": 2540,
      "smiling": 2541,
      "skull": 2542,
      "umb": 2543,
      "ridge": 2544,
      "Most": 2545,
      "ragged": 2546,
      "freed": 2547,
      "parch": 2548,
      "pleasure": 2549,
      "Septa": 2550,
      "ugly": 2551,
      "decided": 2552,
      "rich": 2553,
      "seems": 2554,
      "retched": 2555,
      "hungry": 2556,
      "Mander": 2557,
      "Ry": 2558,
      "Shae": 2559,
      "bron": 2560,
      "slept": 2561,
      "march": 2562,
      "protect": 2563,
      "queer": 2564,
      "Alayne": 2565,
      "YS": 2566,
      "royal": 2567,
      "hers": 2568,
      "present": 2569,
      "joined": 2570,
      "sounded": 2571,
      "glimp": 2572,
      "marriage": 2573,
      "fu": 2574,
      "grave": 2575,
      "rough": 2576,
      "tted": 2577,
      "eron": 2578,
      "tos": 2579,
      "flew": 2580,
      "Harbor": 2581,
      "tales": 2582,
      "strugg": 2583,
      "Mountain": 2584,
      "leaving": 2585,
      "cept": 2586,
      "longsword": 2587,
      "concer": 2588,
      "ggy": 2589,
      "traitor": 2590,
      "bronze": 2591,
      "Slyn": 2592,
      "iers": 2593,
      "lted": 2594,
      "because": 2595,
      "handed": 2596,
      "brow": 2597,
      "dress": 2598,
      "sellsword": 2599,
      "mory": 2600,
      "Yoren": 2601,
      "LOR": 2602,
      "Shad": 2603,
      "ege": 2604,
      "seated": 2605,
      "sheep": 2606,
      "babe": 2607,
      "paid": 2608,
      "Slynt": 2609,
      "Cat": 2610,
      "Os": 2611,
      "dance": 2612,
      "ress": 2613,
      "living": 2614,
      "creature": 2615,
      "dreamed": 2616,
      "easily": 2617,
      "grabbed": 2618,
      "Youn": 2619,
      "spit": 2620,
      "armed": 2621,
      "grant": 2622,
      "rounded": 2623,
      "frozen": 2624,
      "Bry": 2625,
      "East": 2626,
      "Too": 2627,
      "pal": 2628,
      "yield": 2629,
      "ancient": 2630,
      "ory": 2631,
      "deck": 2632,
      "ender": 2633,
      "Kingslayer": 2634,
      "built": 2635,
      "mount": 2636,
      "quickly": 2637,
      "laughing": 2638,
      "village": 2639,
      "shrugged": 2640,
      "CE": 2641,
      "cook": 2642,
      "lu": 2643,
      "worn": 2644,
      "orange": 2645,
      "chin": 2646,
      "sighed": 2647,
      "giant": 2648,
      "Reznak": 2649,
      "leaned": 2650,
      "Bet": 2651,
      "jaw": 2652,
      "nine": 2653,
      "stared": 2654,
      "God": 2655,
      "captains": 2656,
      "OF": 2657,
      "Qy": 2658,
      "egg": 2659,
      "jud": 2660,
      "snor": 2661,
      "thed": 2662,
      "wives": 2663,
      "change": 2664,
      "loves": 2665,
      "aking": 2666,
      "giving": 2667,
      "godswood": 2668,
      "Blackwater": 2669,
      "athed": 2670,
      "Might": 2671,
      "mark": 2672,
      "today": 2673,
      "entered": 2674,
      "gho": 2675,
      "ayne": 2676,
      "bedchamber": 2677,
      "Does": 2678,
      "cracked": 2679,
      "talking": 2680,
      "courtes": 2681,
      "Out": 2682,
      "fli": 2683,
      "gown": 2684,
      "wake": 2685,
      "stark": 2686,
      "feared": 2687,
      "princess": 2688,
      "Instead": 2689,
      "Moon": 2690,
      "cheese": 2691,
      "Al": 2692,
      "fled": 2693,
      "terr": 2694,
      "weir": 2695,
      "whether": 2696,
      "simp": 2697,
      "looks": 2698,
      "chambers": 2699,
      "servants": 2700,
      "streets": 2701,
      "Braavos": 2702,
      "Sweet": 2703,
      "parchment": 2704,
      "Young": 2705,
      "inno": 2706,
      "thrust": 2707,
      "arse": 2708,
      "esi": 2709,
      "fet": 2710,
      "ending": 2711,
      "announced": 2712,
      "lordship": 2713,
      "spect": 2714,
      "swung": 2715,
      "birth": 2716,
      "cas": 2717,
      "dan": 2718,
      "yle": 2719,
      "col": 2720,
      "broad": 2721,
      "gras": 2722,
      "prefer": 2723,
      "honey": 2724,
      "Gate": 2725,
      "pled": 2726,
      "nights": 2727,
      "Strong": 2728,
      "winter": 2729,
      "Starks": 2730,
      "buy": 2731,
      "bitter": 2732,
      "stubb": 2733,
      "duty": 2734,
      "Lancel": 2735,
      "cow": 2736,
      "tang": 2737,
      "cop": 2738,
      "whatever": 2739,
      "drowned": 2740,
      "steal": 2741,
      "commands": 2742,
      "smelled": 2743,
      "surely": 2744,
      "bannermen": 2745,
      "haleesi": 2746,
      "Qhor": 2747,
      "rote": 2748,
      "blan": 2749,
      "ards": 2750,
      "gger": 2751,
      "flag": 2752,
      "Sometimes": 2753,
      "mercy": 2754,
      "Any": 2755,
      "OS": 2756,
      "hit": 2757,
      "form": 2758,
      "butcher": 2759,
      "flame": 2760,
      "sellswords": 2761,
      "burst": 2762,
      "frowned": 2763,
      "Valyrian": 2764,
      "leagues": 2765,
      "instant": 2766,
      "du": 2767,
      "ix": 2768,
      "rri": 2769,
      "ary": 2770,
      "hills": 2771,
      "tering": 2772,
      "boat": 2773,
      "suff": 2774,
      "rent": 2775,
      "proud": 2776,
      "LADY": 2777,
      "Sandor": 2778,
      "Karstark": 2779,
      "breeches": 2780,
      "Arian": 2781,
      "catch": 2782,
      "dle": 2783,
      "iles": 2784,
      "taught": 2785,
      "reason": 2786,
      "thy": 2787,
      "spi": 2788,
      "windows": 2789,
      "maybe": 2790,
      "Someone": 2791,
      "shoved": 2792,
      "Qyburn": 2793,
      "Arianne": 2794,
      "Che": 2795,
      "Nan": 2796,
      "jer": 2797,
      "ammed": 2798,
      "bold": 2799,
      "dies": 2800,
      "clever": 2801,
      "threat": 2802,
      "hoo": 2803,
      "pp": 2804,
      "bla": 2805,
      "songs": 2806,
      "terrible": 2807,
      "AT": 2808,
      "dam": 2809,
      "pet": 2810,
      "sang": 2811,
      "tourney": 2812,
      "anos": 2813,
      "belong": 2814,
      "weather": 2815,
      "spun": 2816,
      "...\"": 2817,
      "share": 2818,
      "snapped": 2819,
      "tonight": 2820,
      "secret": 2821,
      "scarcely": 2822,
      "demanded": 2823,
      "Volantis": 2824,
      "Janos": 2825,
      "Ket": 2826,
      "Many": 2827,
      "bite": 2828,
      "fond": 2829,
      "apping": 2830,
      "warri": 2831,
      "begin": 2832,
      "Marsh": 2833,
      "Penny": 2834,
      "expected": 2835,
      "Rayder": 2836,
      "Sun": 2837,
      "pill": 2838,
      "whores": 2839,
      "everything": 2840,
      "pressed": 2841,
      "square": 2842,
      "stronger": 2843,
      "supper": 2844,
      "swir": 2845,
      "soldiers": 2846,
      "Aeron": 2847,
      "Ghis": 2848,
      "Give": 2849,
      "Of": 2850,
      "Sp": 2851,
      "become": 2852,
      "lip": 2853,
      "suit": 2854,
      "rider": 2855,
      "listen": 2856,
      "Baelor": 2857,
      "Selmy": 2858,
      "Kettle": 2859,
      "Val": 2860,
      "eag": 2861,
      "pack": 2862,
      "tired": 2863,
      "hate": 2864,
      "telling": 2865,
      "Pyp": 2866,
      "vanished": 2867,
      "kitche": 2868,
      "Bor": 2869,
      "Eye": 2870,
      "feather": 2871,
      "couldn": 2872,
      "fting": 2873,
      "everywhere": 2874,
      "hardly": 2875,
      "wounded": 2876,
      "Four": 2877,
      "Ilyn": 2878,
      "MAR": 2879,
      "aro": 2880,
      "likely": 2881,
      "commander": 2882,
      "lowered": 2883,
      "trad": 2884,
      "drick": 2885,
      "sounds": 2886,
      "stern": 2887,
      "REY": 2888,
      "tunic": 2889,
      "Belwas": 2890,
      "admitted": 2891,
      "false": 2892,
      "Eur": 2893,
      "Ober": 2894,
      "hesit": 2895,
      "nden": 2896,
      "bbing": 2897,
      "flu": 2898,
      "slee": 2899,
      "fleet": 2900,
      "desc": 2901,
      "prayed": 2902,
      "wyne": 2903,
      "Manderly": 2904,
      "Brynden": 2905,
      "Euron": 2906,
      "Oberyn": 2907,
      "Free": 2908,
      "bus": 2909,
      "dun": 2910,
      "dared": 2911,
      "lions": 2912,
      "slip": 2913,
      "birds": 2914,
      "screaming": 2915,
      "Kettleblack": 2916,
      "Gold": 2917,
      "Irri": 2918,
      "Li": 2919,
      "bent": 2920,
      "ele": 2921,
      "kicked": 2922,
      "path": 2923,
      "tossed": 2924,
      "added": 2925,
      "weap": 2926,
      "glass": 2927,
      "ANN": 2928,
      "crossbow": 2929,
      "imag": 2930,
      "Redwyne": 2931,
      "houses": 2932,
      "twist": 2933,
      "kingsroad": 2934,
      "mountains": 2935,
      "grief": 2936,
      "Magn": 2937,
      "mas": 2938,
      "op": 2939,
      "ttom": 2940,
      "eds": 2941,
      "real": 2942,
      "iser": 2943,
      "alley": 2944,
      "sub": 2945,
      "sive": 2946,
      "listening": 2947,
      "Podrick": 2948,
      "heat": 2949,
      "refle": 2950,
      "rocks": 2951,
      "liar": 2952,
      "chant": 2953,
      "price": 2954,
      "murmur": 2955,
      "larger": 2956,
      "TT": 2957,
      "Whi": 2958,
      "tled": 2959,
      "wished": 2960,
      "lded": 2961,
      "likes": 2962,
      "suspic": 2963,
      "turning": 2964,
      "shir": 2965,
      "Before": 2966,
      "muttered": 2967,
      "Maybe": 2968,
      "grinned": 2969,
      "straight": 2970,
      "dangerous": 2971,
      "Eastwatch": 2972,
      "Qhorin": 2973,
      "ei": 2974,
      "leep": 2975,
      "rubbed": 2976,
      "eled": 2977,
      "clad": 2978,
      "Martell": 2979,
      "See": 2980,
      "dropped": 2981,
      "hours": 2982,
      "Dick": 2983,
      "ED": 2984,
      "Glover": 2985,
      "Hald": 2986,
      "Mace": 2987,
      "bal": 2988,
      "faith": 2989,
      "zing": 2990,
      "iness": 2991,
      "aming": 2992,
      "torn": 2993,
      "castles": 2994,
      "Alliser": 2995,
      "surrounded": 2996,
      "wondering": 2997,
      "thousands": 2998,
      "ESTER": 2999,
      "UN": 3000,
      "pard": 3001,
      "unless": 3002,
      "boar": 3003,
      "musi": 3004,
      "broo": 3005,
      "cousins": 3006,
      "ING": 3007,
      "crim": 3008,
      "wrapped": 3009,
      "Dar": 3010,
      "Dread": 3011,
      "Look": 3012,
      "Mord": 3013,
      "None": 3014,
      "slo": 3015,
      "trave": 3016,
      "choose": 3017,
      "shame": 3018,
      "flat": 3019,
      "umped": 3020,
      "slew": 3021,
      "Deep": 3022,
      "distant": 3023,
      "MON": 3024,
      "Ti": 3025,
      "Way": 3026,
      "ible": 3027,
      "rup": 3028,
      "rather": 3029,
      "spat": 3030,
      "summer": 3031,
      "mmers": 3032,
      "lightly": 3033,
      "umble": 3034,
      "maids": 3035,
      "Doran": 3036,
      "velve": 3037,
      "Bastard": 3038,
      "Fo": 3039,
      "Flow": 3040,
      "Osm": 3041,
      "oh": 3042,
      "hen": 3043,
      "ises": 3044,
      "cock": 3045,
      "acks": 3046,
      "calling": 3047,
      "blew": 3048,
      "Behind": 3049,
      "Meryn": 3050,
      "books": 3051,
      "iously": 3052,
      "North": 3053,
      "corpses": 3054,
      "widow": 3055,
      "suggested": 3056,
      "Osmund": 3057,
      "Twins": 3058,
      "cra": 3059,
      "wing": 3060,
      "stable": 3061,
      "stables": 3062,
      "itself": 3063,
      "ades": 3064,
      "single": 3065,
      "justice": 3066,
      "holding": 3067,
      "slaver": 3068,
      "Brandon": 3069,
      "fed": 3070,
      "gen": 3071,
      "vau": 3072,
      "stal": 3073,
      "urged": 3074,
      "outlaws": 3075,
      "shared": 3076,
      "poison": 3077,
      "sweat": 3078,
      "fools": 3079,
      "grim": 3080,
      "Cleos": 3081,
      "lts": 3082,
      "tail": 3083,
      "heels": 3084,
      "bells": 3085,
      "shrie": 3086,
      "antly": 3087,
      "Still": 3088,
      "eldest": 3089,
      "stories": 3090,
      "shore": 3091,
      "Lem": 3092,
      "axes": 3093,
      "gently": 3094,
      "brushed": 3095,
      "pieces": 3096,
      "require": 3097,
      "Isl": 3098,
      "Khaleesi": 3099,
      "Sons": 3100,
      "Und": 3101,
      "coo": 3102,
      "map": 3103,
      "oath": 3104,
      "—{": 3105,
      "sever": 3106,
      "rious": 3107,
      "placed": 3108,
      "ignor": 3109,
      "champ": 3110,
      "supposed": 3111,
      "Merry": 3112,
      "shining": 3113,
      "Hor": 3114,
      "RY": 3115,
      "wen": 3116,
      "yles": 3117,
      "enys": 3118,
      "allow": 3119,
      "also": 3120,
      "abb": 3121,
      "Roy": 3122,
      "shape": 3123,
      "voy": 3124,
      "lings": 3125,
      "whip": 3126,
      "press": 3127,
      "clear": 3128,
      "sleeping": 3129,
      "deny": 3130,
      "gentle": 3131,
      "echoed": 3132,
      "counsel": 3133,
      "deliver": 3134,
      "weirwood": 3135,
      "column": 3136,
      "crimson": 3137,
      "Qarth": 3138,
      "RON": 3139,
      "cit": 3140,
      "fail": 3141,
      "min": 3142,
      "pound": 3143,
      "twin": 3144,
      "anks": 3145,
      "ley": 3146,
      "seal": 3147,
      "hilt": 3148,
      "allad": 3149,
      "spent": 3150,
      "size": 3151,
      "drinking": 3152,
      "proper": 3153,
      "swept": 3154,
      "stuff": 3155,
      "trick": 3156,
      "gathered": 3157,
      "dunge": 3158,
      "Bow": 3159,
      "Tongue": 3160,
      "bab": 3161,
      "ese": 3162,
      "fts": 3163,
      "match": 3164,
      "ya": 3165,
      "idered": 3166,
      "ils": 3167,
      "chill": 3168,
      "torches": 3169,
      "enemy": 3170,
      "squir": 3171,
      "train": 3172,
      "Princess": 3173,
      "unders": 3174,
      "litter": 3175,
      "Boros": 3176,
      "Gi": 3177,
      "Hun": 3178,
      "Tor": 3179,
      "book": 3180,
      "ient": 3181,
      "jon": 3182,
      "shat": 3183,
      "dest": 3184,
      "places": 3185,
      "grace": 3186,
      "buried": 3187,
      "northmen": 3188,
      "cups": 3189,
      "suppose": 3190,
      "finished": 3191,
      "thirty": 3192,
      "fifty": 3193,
      "branches": 3194,
      "Ag": 3195,
      "Bey": 3196,
      "Hill": 3197,
      "aver": 3198,
      "gut": 3199,
      "picked": 3200,
      "hero": 3201,
      "robe": 3202,
      "acing": 3203,
      "esc": 3204,
      "adel": 3205,
      "apple": 3206,
      "smashed": 3207,
      "siege": 3208,
      "Comp": 3209,
      "sitting": 3210,
      "Maiden": 3211,
      "smooth": 3212,
      "Royce": 3213,
      "Beyond": 3214,
      "Far": 3215,
      "Gar": 3216,
      "hiqui": 3217,
      "add": 3218,
      "tied": 3219,
      "ends": 3220,
      "hunting": 3221,
      "proved": 3222,
      "treason": 3223,
      "kindly": 3224,
      "welve": 3225,
      "escape": 3226,
      "stubborn": 3227,
      "escort": 3228,
      "Donto": 3229,
      "El": 3230,
      "Jhiqui": 3231,
      "Pi": 3232,
      "WAL": 3233,
      "pity": 3234,
      "trot": 3235,
      "seas": 3236,
      "roast": 3237,
      "formed": 3238,
      "smith": 3239,
      "begun": 3240,
      "listened": 3241,
      "drawn": 3242,
      "emerged": 3243,
      "archers": 3244,
      "leapt": 3245,
      "shirt": 3246,
      "Dontos": 3247,
      "Get": 3248,
      "Squ": 3249,
      "alike": 3250,
      "thigh": 3251,
      "key": 3252,
      "kets": 3253,
      "shel": 3254,
      "chuck": 3255,
      "harder": 3256,
      "renched": 3257,
      "giants": 3258,
      "seized": 3259,
      "trem": 3260,
      "spoken": 3261,
      "painted": 3262,
      "Had": 3263,
      "cool": 3264,
      "tur": 3265,
      "agree": 3266,
      "drown": 3267,
      "lessly": 3268,
      "marble": 3269,
      "smaller": 3270,
      "hundreds": 3271,
      "walking": 3272,
      "missing": 3273,
      "cially": 3274,
      "refused": 3275,
      "swallowed": 3276,
      "victory": 3277,
      "Shadow": 3278,
      "Six": 3279,
      "dust": 3280,
      "na": 3281,
      "sence": 3282,
      "vows": 3283,
      "spill": 3284,
      "everyone": 3285,
      "glow": 3286,
      "crept": 3287,
      "chosen": 3288,
      "cursed": 3289,
      "sending": 3290,
      "Citadel": 3291,
      "Dreadfort": 3292,
      "City": 3293,
      "Pe": 3294,
      "bay": 3295,
      "gloo": 3296,
      "tone": 3297,
      "foes": 3298,
      "handsome": 3299,
      "pot": 3300,
      "prison": 3301,
      "worst": 3302,
      "afterward": 3303,
      "crowd": 3304,
      "crowded": 3305,
      "Uncle": 3306,
      "septon": 3307,
      "horns": 3308,
      "arrived": 3309,
      "circ": 3310,
      "stallion": 3311,
      "HAR": 3312,
      "JON": 3313,
      "kick": 3314,
      "anim": 3315,
      "sting": 3316,
      "robes": 3317,
      "acher": 3318,
      "nephe": 3319,
      "solar": 3320,
      "raise": 3321,
      "whenever": 3322,
      "quer": 3323,
      "foe": 3324,
      "mmed": 3325,
      "pol": 3326,
      "believed": 3327,
      "Sept": 3328,
      "squires": 3329,
      "drove": 3330,
      "copper": 3331,
      "Darry": 3332,
      "nephew": 3333,
      "thor": 3334,
      "blo": 3335,
      "rabb": 3336,
      "bleed": 3337,
      "complained": 3338,
      "chose": 3339,
      "risk": 3340,
      "fields": 3341,
      "galleys": 3342,
      "glimpsed": 3343,
      "innocent": 3344,
      "Flowers": 3345,
      "understood": 3346,
      "Could": 3347,
      "Master": 3348,
      "ahaz": 3349,
      "bag": 3350,
      "bench": 3351,
      "nu": 3352,
      "pun": 3353,
      "sco": 3354,
      "uff": 3355,
      "saved": 3356,
      "sole": 3357,
      "cost": 3358,
      "moth": 3359,
      "dev": 3360,
      "defe": 3361,
      "hunt": 3362,
      "crowned": 3363,
      "waved": 3364,
      "Hoster": 3365,
      "sniff": 3366,
      "guardsmen": 3367,
      "Drogon": 3368,
      "Skahaz": 3369,
      "LORD": 3370,
      "flagon": 3371,
      "Bowen": 3372,
      "Bit": 3373,
      "Sil": 3374,
      "bath": 3375,
      "cab": 3376,
      "damp": 3377,
      "fru": 3378,
      "ffi": 3379,
      "lers": 3380,
      "luck": 3381,
      "sway": 3382,
      "reg": 3383,
      "arl": 3384,
      "hig": 3385,
      "ute": 3386,
      "shy": 3387,
      "goat": 3388,
      "headed": 3389,
      "skins": 3390,
      "flung": 3391,
      "mond": 3392,
      "waist": 3393,
      "takes": 3394,
      "happy": 3395,
      "staring": 3396,
      "tents": 3397,
      "Drowned": 3398,
      "Never": 3399,
      "cro": 3400,
      "fa": 3401,
      "pyr": 3402,
      "zo": 3403,
      "hammer": 3404,
      "sau": 3405,
      "asts": 3406,
      "teach": 3407,
      "slammed": 3408,
      "iced": 3409,
      "contin": 3410,
      "gga": 3411,
      "prove": 3412,
      "haired": 3413,
      "rooms": 3414,
      "struck": 3415,
      "Brown": 3416,
      "expect": 3417,
      "Island": 3418,
      "pyramid": 3419,
      "IS": 3420,
      "MER": 3421,
      "dusk": 3422,
      "ev": 3423,
      "flies": 3424,
      "faded": 3425,
      "plo": 3426,
      "twelve": 3427,
      "weep": 3428,
      "alt": 3429,
      "hollow": 3430,
      "los": 3431,
      "harp": 3432,
      "smallfolk": 3433,
      "studied": 3434,
      "Leave": 3435,
      "Wyman": 3436,
      "Thoros": 3437,
      "Outside": 3438,
      "Gu": 3439,
      "fuck": 3440,
      "jap": 3441,
      "obey": 3442,
      "pup": 3443,
      "rope": 3444,
      "weeping": 3445,
      "bore": 3446,
      "aper": 3447,
      "laz": 3448,
      "ridden": 3449,
      "hearth": 3450,
      "story": 3451,
      "Something": 3452,
      "trade": 3453,
      "priv": 3454,
      "feeling": 3455,
      "stayed": 3456,
      "Halfhand": 3457,
      "Pentos": 3458,
      "guests": 3459,
      "music": 3460,
      "velvet": 3461,
      "Beneath": 3462,
      "Mis": 3463,
      "Payne": 3464,
      "Ye": 3465,
      "bank": 3466,
      "prow": 3467,
      "smu": 3468,
      "inted": 3469,
      "ists": 3470,
      "bottom": 3471,
      "somewhere": 3472,
      "crew": 3473,
      "farther": 3474,
      "ails": 3475,
      "yards": 3476,
      "swallow": 3477,
      "magic": 3478,
      "cabin": 3479,
      "Bay": 3480,
      "Flo": 3481,
      "bi": 3482,
      "bas": 3483,
      "ctor": 3484,
      "gle": 3485,
      "lance": 3486,
      "tte": 3487,
      "ashes": 3488,
      "thunder": 3489,
      "metal": 3490,
      "rice": 3491,
      "plu": 3492,
      "heartbeat": 3493,
      "Jory": 3494,
      "playing": 3495,
      "knocked": 3496,
      "DER": 3497,
      "Ny": 3498,
      "TER": 3499,
      "Xaro": 3500,
      "asleep": 3501,
      "ations": 3502,
      "hated": 3503,
      "espe": 3504,
      "forced": 3505,
      "forgive": 3506,
      "boiled": 3507,
      "tless": 3508,
      "steep": 3509,
      "umbling": 3510,
      "ironmen": 3511,
      "cious": 3512,
      "Myrish": 3513,
      "candles": 3514,
      "loudly": 3515,
      "khalas": 3516,
      "Cap": 3517,
      "Very": 3518,
      "asped": 3519,
      "sters": 3520,
      "order": 3521,
      "goes": 3522,
      "Tyro": 3523,
      "mmon": 3524,
      "shaking": 3525,
      "singing": 3526,
      "weary": 3527,
      "lines": 3528,
      "business": 3529,
      "Haldon": 3530,
      "Deepwood": 3531,
      "smugg": 3532,
      "Mall": 3533,
      "craven": 3534,
      "pick": 3535,
      "rant": 3536,
      "hell": 3537,
      "anked": 3538,
      "erion": 3539,
      "having": 3540,
      "lla": 3541,
      "lying": 3542,
      "force": 3543,
      "former": 3544,
      "fever": 3545,
      "blame": 3546,
      "deb": 3547,
      "aband": 3548,
      "brothe": 3549,
      "evening": 3550,
      "stom": 3551,
      "lovely": 3552,
      "missed": 3553,
      "shields": 3554,
      "sails": 3555,
      "Dragons": 3556,
      "crying": 3557,
      "temple": 3558,
      "baby": 3559,
      "OL": 3560,
      "center": 3561,
      "swo": 3562,
      "til": 3563,
      "anx": 3564,
      "stained": 3565,
      "limb": 3566,
      "notion": 3567,
      "ruins": 3568,
      "kneel": 3569,
      "prayer": 3570,
      "wounds": 3571,
      "Greatjon": 3572,
      "sandei": 3573,
      "mett": 3574,
      "squee": 3575,
      "savage": 3576,
      "doublet": 3577,
      "eggs": 3578,
      "simple": 3579,
      "reflected": 3580,
      "murmured": 3581,
      "Missandei": 3582,
      "abandoned": 3583,
      "Ax": 3584,
      "Fin": 3585,
      "Osha": 3586,
      "Tru": 3587,
      "aunt": 3588,
      "danced": 3589,
      "lack": 3590,
      "ying": 3591,
      "youth": 3592,
      "rip": 3593,
      "ripped": 3594,
      "shit": 3595,
      "folly": 3596,
      "scared": 3597,
      "inkled": 3598,
      "clou": 3599,
      "killing": 3600,
      "dragged": 3601,
      "landed": 3602,
      "flying": 3603,
      "poured": 3604,
      "surprised": 3605,
      "flick": 3606,
      "especially": 3607,
      "BER": 3608,
      "oil": 3609,
      "sy": 3610,
      "ere": 3611,
      "ena": 3612,
      "stony": 3613,
      "noon": 3614,
      "blades": 3615,
      "spir": 3616,
      "Nothing": 3617,
      "rights": 3618,
      "treas": 3619,
      "garris": 3620,
      "parted": 3621,
      "passing": 3622,
      "eaten": 3623,
      "snorted": 3624,
      "Fro": 3625,
      "Mad": 3626,
      "lur": 3627,
      "piss": 3628,
      "stor": 3629,
      "task": 3630,
      "wits": 3631,
      "noise": 3632,
      "hore": 3633,
      "seek": 3634,
      "Noye": 3635,
      "skir": 3636,
      "singers": 3637,
      "interest": 3638,
      "keeps": 3639,
      "highborn": 3640,
      "deeper": 3641,
      "stump": 3642,
      "wearing": 3643,
      "grandfather": 3644,
      "Baelish": 3645,
      "courtesy": 3646,
      "imagine": 3647,
      "several": 3648,
      "Aly": 3649,
      "Dusk": 3650,
      "FREY": 3651,
      "Gal": 3652,
      "Pate": 3653,
      "TON": 3654,
      "incl": 3655,
      "straw": 3656,
      "lee": 3657,
      "coat": 3658,
      "ific": 3659,
      "backward": 3660,
      "dim": 3661,
      "desper": 3662,
      "warmth": 3663,
      "ladies": 3664,
      "distance": 3665,
      "secrets": 3666,
      "corner": 3667,
      "sigil": 3668,
      "Chett": 3669,
      "Under": 3670,
      "ME": 3671,
      "bend": 3672,
      "croo": 3673,
      "wrist": 3674,
      "relie": 3675,
      "stumbled": 3676,
      "memory": 3677,
      "bel": 3678,
      "spare": 3679,
      "elbow": 3680,
      "forever": 3681,
      "Arys": 3682,
      "monster": 3683,
      "treacher": 3684,
      "fortnight": 3685,
      "lorous": 3686,
      "swift": 3687,
      "dirt": 3688,
      "companions": 3689,
      "Sla": 3690,
      "cage": 3691,
      "mn": 3692,
      "rels": 3693,
      "ldom": 3694,
      "seldom": 3695,
      "acti": 3696,
      "icy": 3697,
      "Dolorous": 3698,
      "Thank": 3699,
      "Blackfish": 3700,
      "collar": 3701,
      "dancing": 3702,
      "Merryweather": 3703,
      "bigger": 3704,
      "swollen": 3705,
      "Finally": 3706,
      "Des": 3707,
      "OW": 3708,
      "lined": 3709,
      "rage": 3710,
      "oul": 3711,
      "reco": 3712,
      "andy": 3713,
      "argu": 3714,
      "sear": 3715,
      "wiped": 3716,
      "ache": 3717,
      "sal": 3718,
      "ools": 3719,
      "net": 3720,
      "tern": 3721,
      "using": 3722,
      "esters": 3723,
      "Soon": 3724,
      "clam": 3725,
      "bowl": 3726,
      "remembering": 3727,
      "flowers": 3728,
      "Should": 3729,
      "sleeve": 3730,
      "khalasar": 3731,
      "Dark": 3732,
      "Fle": 3733,
      "Last": 3734,
      "lou": 3735,
      "nur": 3736,
      "waves": 3737,
      "rear": 3738,
      "repe": 3739,
      "hai": 3740,
      "hadn": 3741,
      "burnt": 3742,
      "Arbor": 3743,
      "ironborn": 3744,
      "human": 3745,
      "taller": 3746,
      "household": 3747,
      "sharply": 3748,
      "MAESTER": 3749,
      "Golden": 3750,
      "stomach": 3751,
      "Hard": 3752,
      "bly": 3753,
      "hound": 3754,
      "ience": 3755,
      "kar": 3756,
      "nice": 3757,
      "stretched": 3758,
      "lemon": 3759,
      "estor": 3760,
      "lake": 3761,
      "ddy": 3762,
      "castell": 3763,
      "comb": 3764,
      "survi": 3765,
      "desp": 3766,
      "ringing": 3767,
      "rett": 3768,
      "furs": 3769,
      "clutched": 3770,
      "solemn": 3771,
      "LY": 3772,
      "Nestor": 3773,
      "athing": 3774,
      "bbled": 3775,
      "faster": 3776,
      "rats": 3777,
      "roared": 3778,
      "sailed": 3779,
      "mock": 3780,
      "venge": 3781,
      "pride": 3782,
      "eating": 3783,
      "tempt": 3784,
      "wisdom": 3785,
      "Conning": 3786,
      "Gerris": 3787,
      "written": 3788,
      "Magnar": 3789,
      "Axell": 3790,
      "),": 3791,
      "Bes": 3792,
      "Gyles": 3793,
      "Sa": 3794,
      "Shall": 3795,
      "base": 3796,
      "gap": 3797,
      "onions": 3798,
      "anda": 3799,
      "became": 3800,
      "forty": 3801,
      "managed": 3802,
      "musc": 3803,
      "tley": 3804,
      "plump": 3805,
      "slapped": 3806,
      "stew": 3807,
      "glory": 3808,
      "battles": 3809,
      "pulling": 3810,
      "colors": 3811,
      "Yunkish": 3812,
      "blowing": 3813,
      "wagons": 3814,
      "Valyri": 3815,
      "Need": 3816,
      "fetch": 3817,
      "Sunspear": 3818,
      "hesitated": 3819,
      "pounding": 3820,
      "desperate": 3821,
      "Cress": 3822,
      "bought": 3823,
      "bars": 3824,
      "ford": 3825,
      "fil": 3826,
      "pate": 3827,
      "pits": 3828,
      "wrenched": 3829,
      "island": 3830,
      "ens": 3831,
      "vest": 3832,
      "acc": 3833,
      "lyse": 3834,
      "deed": 3835,
      "boast": 3836,
      "mummer": 3837,
      "tear": 3838,
      "suffi": 3839,
      "slashed": 3840,
      "ount": 3841,
      "howling": 3842,
      "Fork": 3843,
      "doesn": 3844,
      "Selyse": 3845,
      "splend": 3846,
      "splinter": 3847,
      "crip": 3848,
      "Dornishmen": 3849,
      "Cities": 3850,
      "Like": 3851,
      "Connington": 3852,
      "Cressen": 3853,
      "Mu": 3854,
      "SA": 3855,
      "Thi": 3856,
      "bless": 3857,
      "case": 3858,
      "lp": 3859,
      "mour": 3860,
      "tore": 3861,
      "ense": 3862,
      "orge": 3863,
      "llo": 3864,
      "melt": 3865,
      "tions": 3866,
      "grate": 3867,
      "thinks": 3868,
      "spotted": 3869,
      "tasted": 3870,
      "sixteen": 3871,
      "Common": 3872,
      "beauty": 3873,
      "remains": 3874,
      "Wolf": 3875,
      "OOD": 3876,
      "descended": 3877,
      "Bring": 3878,
      "Each": 3879,
      "Hyle": 3880,
      "lap": 3881,
      "ram": 3882,
      "meal": 3883,
      "ition": 3884,
      "hip": 3885,
      "noticed": 3886,
      "rail": 3887,
      "abbed": 3888,
      "seeing": 3889,
      "chief": 3890,
      "maesters": 3891,
      "clum": 3892,
      "marked": 3893,
      "ARD": 3894,
      "badly": 3895,
      "captives": 3896,
      "oooooooo": 3897,
      "comfortable": 3898,
      "champion": 3899,
      "fruit": 3900,
      "clouds": 3901,
      "castellan": 3902,
      "Lom": 3903,
      "ball": 3904,
      "dread": 3905,
      "egi": 3906,
      "flight": 3907,
      "ju": 3908,
      "nat": 3909,
      "sack": 3910,
      "tong": 3911,
      "ued": 3912,
      "ances": 3913,
      "sages": 3914,
      "alla": 3915,
      "hole": 3916,
      "shone": 3917,
      "isters": 3918,
      "worked": 3919,
      "afternoon": 3920,
      "glance": 3921,
      "Samwell": 3922,
      "youngest": 3923,
      "rested": 3924,
      "holdfast": 3925,
      "speaking": 3926,
      "attend": 3927,
      "Hotah": 3928,
      "frown": 3929,
      "Syrio": 3930,
      "Mordane": 3931,
      "Florent": 3932,
      "Dare": 3933,
      "Randy": 3934,
      "Send": 3935,
      "ee": 3936,
      "hll": 3937,
      "mask": 3938,
      "nut": 3939,
      "rat": 3940,
      "shim": 3941,
      "vie": 3942,
      "enjoy": 3943,
      "lift": 3944,
      "uncertain": 3945,
      "fee": 3946,
      "blur": 3947,
      "Lords": 3948,
      "endale": 3949,
      "thanks": 3950,
      "knowing": 3951,
      "letters": 3952,
      "donned": 3953,
      "Moat": 3954,
      "settled": 3955,
      "curled": 3956,
      "message": 3957,
      "smells": 3958,
      "armored": 3959,
      "roads": 3960,
      "fury": 3961,
      "charge": 3962,
      "mistake": 3963,
      "Osney": 3964,
      "weapons": 3965,
      "massive": 3966,
      "Randyll": 3967,
      "hllor": 3968,
      "Five": 3969,
      "bin": 3970,
      "gru": 3971,
      "hy": 3972,
      "ppy": 3973,
      "wri": 3974,
      "inch": 3975,
      "essed": 3976,
      "soaked": 3977,
      "scabb": 3978,
      "pois": 3979,
      "thrown": 3980,
      "Whatever": 3981,
      "monstr": 3982,
      "treat": 3983,
      "lower": 3984,
      "curse": 3985,
      "armory": 3986,
      "Merrett": 3987,
      "strike": 3988,
      "considered": 3989,
      "suffer": 3990,
      "pples": 3991,
      "pardon": 3992,
      "shattered": 3993,
      "Else": 3994,
      "higher": 3995,
      "garrison": 3996,
      "Duskendale": 3997,
      "repeated": 3998,
      "Abo": 3999,
      "Bu": 4000,
      "Emmon": 4001,
      "Faith": 4002,
      "IG": 4003,
      "Rho": 4004,
      "gers": 4005,
      "main": 4006,
      "pir": 4007,
      "sides": 4008,
      "resp": 4009,
      "ased": 4010,
      "begged": 4011,
      "acon": 4012,
      "oom": 4013,
      "lia": 4014,
      "wept": 4015,
      "shes": 4016,
      "spied": 4017,
      "test": 4018,
      "trained": 4019,
      "snatched": 4020,
      "news": 4021,
      "confess": 4022,
      "inner": 4023,
      "write": 4024,
      "udder": 4025,
      "piece": 4026,
      "Bloody": 4027,
      "shivering": 4028,
      "blanket": 4029,
      "crooked": 4030,
      "Needle": 4031,
      "Chap": 4032,
      "ISTER": 4033,
      "Jho": 4034,
      "Mir": 4035,
      "QU": 4036,
      "Wal": 4037,
      "tured": 4038,
      "sewn": 4039,
      "aye": 4040,
      "shudder": 4041,
      "sumed": 4042,
      "greet": 4043,
      "lingered": 4044,
      "wary": 4045,
      "ggled": 4046,
      "lesson": 4047,
      "flut": 4048,
      "presence": 4049,
      "marched": 4050,
      "avi": 4051,
      "swing": 4052,
      "fortun": 4053,
      "passage": 4054,
      "trial": 4055,
      "breastplate": 4056,
      "split": 4057,
      "Benjen": 4058,
      "besides": 4059,
      "healer": 4060,
      "braz": 4061,
      "Captain": 4062,
      "recogn": 4063,
      "Valyria": 4064,
      "Add": 4065,
      "BE": 4066,
      "Row": 4067,
      "Warri": 4068,
      "mir": 4069,
      "pavi": 4070,
      "sac": 4071,
      "vast": 4072,
      "onion": 4073,
      "leaf": 4074,
      "wight": 4075,
      "oot": 4076,
      "agged": 4077,
      "note": 4078,
      "havepate": 4079,
      "ckled": 4080,
      "clothing": 4081,
      "vosi": 4082,
      "ddled": 4083,
      "lightning": 4084,
      "merchant": 4085,
      "gaol": 4086,
      "prayers": 4087,
      "rolling": 4088,
      "hiding": 4089,
      "madness": 4090,
      "wagon": 4091,
      "Braavosi": 4092,
      "Shagga": 4093,
      "Shield": 4094,
      "ghost": 4095,
      "Saan": 4096,
      "Dareon": 4097,
      "view": 4098,
      "Chapter": 4099,
      "Jhogo": 4100,
      "Am": 4101,
      "Fist": 4102,
      "Up": 4103,
      "Water": 4104,
      "fir": 4105,
      "stink": 4106,
      "stranger": 4107,
      "atin": 4108,
      "iders": 4109,
      "alty": 4110,
      "holes": 4111,
      "ruled": 4112,
      "bodies": 4113,
      "brand": 4114,
      "slit": 4115,
      "slender": 4116,
      "bloodriders": 4117,
      "conv": 4118,
      "Hoat": 4119,
      "squat": 4120,
      "complain": 4121,
      "support": 4122,
      "septa": 4123,
      "Afterward": 4124,
      "brush": 4125,
      "jewe": 4126,
      "nerv": 4127,
      "kitchens": 4128,
      "twisting": 4129,
      "failed": 4130,
      "Alys": 4131,
      "Lommy": 4132,
      "Warrior": 4133,
      "Fire": 4134,
      "Sw": 4135,
      "dish": 4136,
      "iance": 4137,
      "jest": 4138,
      "journey": 4139,
      "wrote": 4140,
      "toes": 4141,
      "asking": 4142,
      "bellow": 4143,
      "illion": 4144,
      "akh": 4145,
      "shaft": 4146,
      "wax": 4147,
      "battlements": 4148,
      "riverlands": 4149,
      "miss": 4150,
      "parts": 4151,
      "matters": 4152,
      "reply": 4153,
      "quietly": 4154,
      "custo": 4155,
      "brick": 4156,
      "fami": 4157,
      "Ryman": 4158,
      "natur": 4159,
      "AS": 4160,
      "CH": 4161,
      "Cor": 4162,
      "Rattle": 4163,
      "Shavepate": 4164,
      "TA": 4165,
      "Ten": 4166,
      "dru": 4167,
      "fun": 4168,
      "fare": 4169,
      "mort": 4170,
      "rout": 4171,
      "tran": 4172,
      "reward": 4173,
      "lled": 4174,
      "amps": 4175,
      "spur": 4176,
      "rub": 4177,
      "plan": 4178,
      "scout": 4179,
      "poss": 4180,
      "drun": 4181,
      "whir": 4182,
      "married": 4183,
      "holds": 4184,
      "gifts": 4185,
      "dais": 4186,
      "fifteen": 4187,
      "Steel": 4188,
      "hooves": 4189,
      "gloom": 4190,
      "Rattleshirt": 4191,
      "Ass": 4192,
      "ES": 4193,
      "Hu": 4194,
      "Ice": 4195,
      "Make": 4196,
      "Rain": 4197,
      "Sallad": 4198,
      "Satin": 4199,
      "bane": 4200,
      "pear": 4201,
      "tokar": 4202,
      "asp": 4203,
      "sty": 4204,
      "ammoth": 4205,
      "handful": 4206,
      "backed": 4207,
      "scow": 4208,
      "pering": 4209,
      "shifted": 4210,
      "Lannis": 4211,
      "flee": 4212,
      "curtain": 4213,
      "Tarth": 4214,
      "Vargo": 4215,
      "roots": 4216,
      "stairs": 4217,
      "eager": 4218,
      "number": 4219,
      "Salladhor": 4220,
      "Best": 4221,
      "Cail": 4222,
      "chas": 4223,
      "ders": 4224,
      "numb": 4225,
      "ising": 4226,
      "thrice": 4227,
      "ading": 4228,
      "terms": 4229,
      "ruin": 4230,
      "tic": 4231,
      "plant": 4232,
      "plans": 4233,
      "shaggy": 4234,
      "fied": 4235,
      "permit": 4236,
      "skill": 4237,
      "clung": 4238,
      "cleared": 4239,
      "spoon": 4240,
      "worthy": 4241,
      "sullen": 4242,
      "Rickard": 4243,
      "Better": 4244,
      "swirling": 4245,
      "WALDER": 4246,
      "score": 4247,
      "sniffed": 4248,
      "scabbard": 4249,
      "Cailin": 4250,
      "Duck": 4251,
      "En": 4252,
      "Has": 4253,
      "LO": 4254,
      "Plu": 4255,
      "Qo": 4256,
      "Salt": 4257,
      "Wood": 4258,
      "cket": 4259,
      "dang": 4260,
      "dried": 4261,
      "gloves": 4262,
      "tly": 4263,
      "xed": 4264,
      "arrion": 4265,
      "accept": 4266,
      "thern": 4267,
      "holy": 4268,
      "amb": 4269,
      "ently": 4270,
      "raken": 4271,
      "suc": 4272,
      "sume": 4273,
      "fiery": 4274,
      "chewed": 4275,
      "Mya": 4276,
      "practi": 4277,
      "male": 4278,
      "mention": 4279,
      "Harlaw": 4280,
      "halls": 4281,
      "hostage": 4282,
      "autumn": 4283,
      "wrinkled": 4284,
      "linen": 4285,
      "leading": 4286,
      "wyck": 4287,
      "RION": 4288,
      "amidst": 4289,
      "shelter": 4290,
      "bleeding": 4291,
      "grateful": 4292,
      "Mirri": 4293,
      "Rowan": 4294,
      "drunken": 4295,
      "Lannisport": 4296,
      "Tall": 4297,
      "Town": 4298,
      "Try": 4299,
      "cou": 4300,
      "calm": 4301,
      "fas": 4302,
      "jou": 4303,
      "miles": 4304,
      "pools": 4305,
      "tumbled": 4306,
      "yne": 4307,
      "haunted": 4308,
      "thie": 4309,
      "arakh": 4310,
      "hopes": 4311,
      "upward": 4312,
      "blackened": 4313,
      "Dog": 4314,
      "winds": 4315,
      "foolish": 4316,
      "bastards": 4317,
      "safely": 4318,
      "colored": 4319,
      "trusted": 4320,
      "Smallwood": 4321,
      "porridge": 4322,
      "required": 4323,
      "Thorne": 4324,
      "concern": 4325,
      "ignored": 4326,
      "recogni": 4327,
      "Dust": 4328,
      "LANN": 4329,
      "Wat": 4330,
      "WYN": 4331,
      "YA": 4332,
      "cave": 4333,
      "cess": 4334,
      "mammoth": 4335,
      "nin": 4336,
      "ror": 4337,
      "tide": 4338,
      "tend": 4339,
      "nels": 4340,
      "weal": 4341,
      "spin": 4342,
      "ours": 4343,
      "kingdom": 4344,
      "loomed": 4345,
      "betro": 4346,
      "breathing": 4347,
      "Motte": 4348,
      "cells": 4349,
      "Remember": 4350,
      "Both": 4351,
      "layer": 4352,
      "Until": 4353,
      "sailors": 4354,
      "happens": 4355,
      "refuse": 4356,
      "warriors": 4357,
      "chuckled": 4358,
      "Mallister": 4359,
      "Above": 4360,
      "natural": 4361,
      "Big": 4362,
      "Dond": 4363,
      "Elia": 4364,
      "War": 4365,
      "Worm": 4366,
      "cough": 4367,
      "fan": 4368,
      "lace": 4369,
      "lust": 4370,
      "odd": 4371,
      "ratt": 4372,
      "strode": 4373,
      "coins": 4374,
      "moss": 4375,
      "shor": 4376,
      "ERS": 4377,
      "stolen": 4378,
      "snar": 4379,
      "bringing": 4380,
      "pleasant": 4381,
      "easier": 4382,
      "servant": 4383,
      "Loraq": 4384,
      "kettle": 4385,
      "obje": 4386,
      "troubled": 4387,
      "honest": 4388,
      "clutching": 4389,
      "throwing": 4390,
      "betrayed": 4391,
      "Aggo": 4392,
      "Masters": 4393,
      "Plumm": 4394,
      "Dondarrion": 4395,
      "BR": 4396,
      "Battle": 4397,
      "Du": 4398,
      "Hag": 4399,
      "Whis": 4400,
      "ales": 4401,
      "braid": 4402,
      "dull": 4403,
      "stoo": 4404,
      "hacked": 4405,
      "staff": 4406,
      "sake": 4407,
      "amon": 4408,
      "locked": 4409,
      "arest": 4410,
      "shallow": 4411,
      "conce": 4412,
      "ign": 4413,
      "runk": 4414,
      "drifting": 4415,
      "Harwin": 4416,
      "sunlight": 4417,
      "surcoat": 4418,
      "rivers": 4419,
      "crossing": 4420,
      "fourteen": 4421,
      "striped": 4422,
      "questions": 4423,
      "Pod": 4424,
      "curious": 4425,
      "pitch": 4426,
      "tunnel": 4427,
      "dirk": 4428,
      "aqen": 4429,
      "ghosts": 4430,
      "jerked": 4431,
      "voyage": 4432,
      "stuffed": 4433,
      "anxious": 4434,
      "poisoned": 4435,
      "Addam": 4436,
      "Swann": 4437,
      "MOR": 4438,
      "Prote": 4439,
      "cart": 4440,
      "foul": 4441,
      "yanked": 4442,
      "isn": 4443,
      "waste": 4444,
      "amped": 4445,
      "blown": 4446,
      "dear": 4447,
      "scattered": 4448,
      "bble": 4449,
      "Mae": 4450,
      "cari": 4451,
      "skinny": 4452,
      "aware": 4453,
      "careful": 4454,
      "Such": 4455,
      "scarred": 4456,
      "Dead": 4457,
      "moonlight": 4458,
      "Brack": 4459,
      "wager": 4460,
      "collap": 4461,
      "carrying": 4462,
      "bellion": 4463,
      "stroked": 4464,
      "gladly": 4465,
      "warrior": 4466,
      "Ghiscari": 4467,
      "eleph": 4468,
      "Which": 4469,
      "dungeons": 4470,
      "Maidenpool": 4471,
      "louder": 4472,
      "splendid": 4473,
      "tongues": 4474,
      "Damp": 4475,
      "Kill": 4476,
      "Ta": 4477,
      "Wor": 4478,
      "bull": 4479,
      "cran": 4480,
      "das": 4481,
      "hells": 4482,
      "inked": 4483,
      "indeed": 4484,
      "removed": 4485,
      "stan": 4486,
      "seed": 4487,
      "search": 4488,
      "roar": 4489,
      "lydas": 4490,
      "licked": 4491,
      "unc": 4492,
      "ury": 4493,
      "mmered": 4494,
      "shaped": 4495,
      "shouldn": 4496,
      "precious": 4497,
      "elder": 4498,
      "except": 4499,
      "getting": 4500,
      "Boy": 4501,
      "Second": 4502,
      "observed": 4503,
      "grip": 4504,
      "climbing": 4505,
      "gener": 4506,
      "brazier": 4507,
      "betrothed": 4508,
      "BLA": 4509,
      "Clydas": 4510,
      "ILL": 4511,
      "MAN": 4512,
      "Rorge": 4513,
      "Usur": 4514,
      "Warden": 4515,
      "cts": 4516,
      "ik": 4517,
      "rings": 4518,
      "vow": 4519,
      "thumb": 4520,
      "aches": 4521,
      "raped": 4522,
      "ranso": 4523,
      "aul": 4524,
      "gilded": 4525,
      "Maz": 4526,
      "Inside": 4527,
      "attering": 4528,
      "ures": 4529,
      "mounts": 4530,
      "Unless": 4531,
      "hurried": 4532,
      "sorcer": 4533,
      "stirred": 4534,
      "grasp": 4535,
      "tangled": 4536,
      "flushed": 4537,
      "Duur": 4538,
      "BLACK": 4539,
      "Usurper": 4540,
      "11": 4541,
      "CHA": 4542,
      "KE": 4543,
      "Umber": 4544,
      "Wed": 4545,
      "kward": 4546,
      "oc": 4547,
      "paper": 4548,
      "wander": 4549,
      "ripe": 4550,
      "thered": 4551,
      "hoping": 4552,
      "butter": 4553,
      "amyr": 4554,
      "quiver": 4555,
      "rushing": 4556,
      "hedge": 4557,
      "anna": 4558,
      "cheer": 4559,
      "steady": 4560,
      "treated": 4561,
      "dric": 4562,
      "Harys": 4563,
      "Marillion": 4564,
      "creeping": 4565,
      "repor": 4566,
      "thirteen": 4567,
      "RED": 4568,
      "import": 4569,
      "purpose": 4570,
      "confused": 4571,
      "consent": 4572,
      "crawled": 4573,
      "hanging": 4574,
      "Slaver": 4575,
      "familiar": 4576,
      "Asshai": 4577,
      "Taena": 4578,
      "Ah": 4579,
      "Amory": 4580,
      "BAR": 4581,
      "GAR": 4582,
      "Na": 4583,
      "Oak": 4584,
      "ian": 4585,
      "kraken": 4586,
      "sin": 4587,
      "tit": 4588,
      "vided": 4589,
      "aned": 4590,
      "reen": 4591,
      "rece": 4592,
      "really": 4593,
      "thirst": 4594,
      "begging": 4595,
      "herald": 4596,
      "neath": 4597,
      "aloud": 4598,
      "lock": 4599,
      "tooth": 4600,
      "Its": 4601,
      "pling": 4602,
      "sideways": 4603,
      "prin": 4604,
      "rightful": 4605,
      "flay": 4606,
      "clans": 4607,
      "fellow": 4608,
      "stole": 4609,
      "exile": 4610,
      "bows": 4611,
      "stands": 4612,
      "party": 4613,
      "gaunt": 4614,
      "mists": 4615,
      "following": 4616,
      "footsteps": 4617,
      "lantern": 4618,
      "cushi": 4619,
      "beasts": 4620,
      "circle": 4621,
      "surprise": 4622,
      "Hornwood": 4623,
      "struggled": 4624,
      "Wayn": 4625,
      "brothel": 4626,
      "Damphair": 4627,
      "Back": 4628,
      "Dag": 4629,
      "Fe": 4630,
      "Isle": 4631,
      "LU": 4632,
      "Pret": 4633,
      "aes": 4634,
      "avo": 4635,
      "caut": 4636,
      "gran": 4637,
      "grum": 4638,
      "hull": 4639,
      "ip": 4640,
      "kers": 4641,
      "page": 4642,
      "wiz": 4643,
      "sheathed": 4644,
      "fears": 4645,
      "blu": 4646,
      "del": 4647,
      "wheel": 4648,
      "ifer": 4649,
      "board": 4650,
      "fold": 4651,
      "anned": 4652,
      "rows": 4653,
      "Weese": 4654,
      "gust": 4655,
      "prep": 4656,
      "descent": 4657,
      "Pylos": 4658,
      "cuts": 4659,
      "imble": 4660,
      "huddled": 4661,
      "cliff": 4662,
      "Varamyr": 4663,
      "gallant": 4664,
      "scarlet": 4665,
      "rusted": 4666,
      "Donal": 4667,
      "soul": 4668,
      "soup": 4669,
      "loyalty": 4670,
      "crawling": 4671,
      "summoned": 4672,
      "favorite": 4673,
      "slavers": 4674,
      "evil": 4675,
      "monstrous": 4676,
      "LANNISTER": 4677,
      "Down": 4678,
      "Jaqen": 4679,
      "MY": 4680,
      "ibald": 4681,
      "pts": 4682,
      "tables": 4683,
      "“...": 4684,
      "rend": 4685,
      "haw": 4686,
      "ored": 4687,
      "stare": 4688,
      "nearest": 4689,
      "notice": 4690,
      "sore": 4691,
      "whom": 4692,
      "suck": 4693,
      "overhead": 4694,
      "cloud": 4695,
      "exc": 4696,
      "explained": 4697,
      "disap": 4698,
      "assured": 4699,
      "cellar": 4700,
      "dreaming": 4701,
      "surface": 4702,
      "Meribald": 4703,
      "fastened": 4704,
      "Tyrells": 4705,
      "length": 4706,
      "Magister": 4707,
      "solid": 4708,
      "Brothers": 4709,
      "damn": 4710,
      "training": 4711,
      "trotted": 4712,
      "turtle": 4713,
      "smuggler": 4714,
      "clumsy": 4715,
      "Maegor": 4716,
      "Brave": 4717,
      "cal": 4718,
      "cull": 4719,
      "heel": 4720,
      "outer": 4721,
      "recalled": 4722,
      "thread": 4723,
      "string": 4724,
      "mead": 4725,
      "begg": 4726,
      "unch": 4727,
      "blinked": 4728,
      "quill": 4729,
      "brist": 4730,
      "shake": 4731,
      "ledge": 4732,
      "thoughts": 4733,
      "pless": 4734,
      "chained": 4735,
      "dripping": 4736,
      "meri": 4737,
      "happ": 4738,
      "fourth": 4739,
      "growled": 4740,
      "whispering": 4741,
      "innkeep": 4742,
      "beating": 4743,
      "Brazen": 4744,
      "quarrel": 4745,
      "building": 4746,
      "approach": 4747,
      "Drink": 4748,
      "TYRION": 4749,
      "summon": 4750,
      "kicking": 4751,
      "Islands": 4752,
      "plucked": 4753,
      "skirts": 4754,
      "fashi": 4755,
      "uncles": 4756,
      "Fl": 4757,
      "Sworn": 4758,
      "bber": 4759,
      "bacon": 4760,
      "dug": 4761,
      "lone": 4762,
      "pep": 4763,
      "padded": 4764,
      "uries": 4765,
      "yed": 4766,
      "resto": 4767,
      "legged": 4768,
      "beck": 4769,
      "keys": 4770,
      "mocking": 4771,
      "dep": 4772,
      "spraw": 4773,
      "scor": 4774,
      "howled": 4775,
      "flapping": 4776,
      "tells": 4777,
      "helms": 4778,
      "hearing": 4779,
      "shouts": 4780,
      "bitch": 4781,
      "finish": 4782,
      "carefully": 4783,
      "gallo": 4784,
      "twit": 4785,
      "distur": 4786,
      "confessed": 4787,
      "scratch": 4788,
      "terror": 4789,
      "Torr": 4790,
      "thighs": 4791,
      "Nymeri": 4792,
      "firm": 4793,
      "Nymeria": 4794,
      "Alyn": 4795,
      "Chi": 4796,
      "Dan": 4797,
      "cting": 4798,
      "fis": 4799,
      "mile": 4800,
      "mbled": 4801,
      "zor": 4802,
      "history": 4803,
      "wicked": 4804,
      "mocked": 4805,
      "blunt": 4806,
      "scars": 4807,
      "sire": 4808,
      "chal": 4809,
      "talked": 4810,
      "gazed": 4811,
      "ENN": 4812,
      "bearded": 4813,
      "awkward": 4814,
      "filling": 4815,
      "dwarfs": 4816,
      "Devan": 4817,
      "rotting": 4818,
      "drop": 4819,
      "breaking": 4820,
      "knives": 4821,
      "zzan": 4822,
      "zzled": 4823,
      "Lot": 4824,
      "stroke": 4825,
      "scram": 4826,
      "claws": 4827,
      "judge": 4828,
      "Giant": 4829,
      "Yezzan": 4830,
      "treacherous": 4831,
      "frowning": 4832,
      "Enough": 4833,
      "ninet": 4834,
      "Torrhen": 4835,
      "AI": 4836,
      "Across": 4837,
      "GE": 4838,
      "Garth": 4839,
      "PTER": 4840,
      "bum": 4841,
      "bbling": 4842,
      "fau": 4843,
      "mong": 4844,
      "naught": 4845,
      "ox": 4846,
      "pow": 4847,
      "pine": 4848,
      "whim": 4849,
      "height": 4850,
      "haven": 4851,
      "arts": 4852,
      "stat": 4853,
      "muddy": 4854,
      "ornate": 4855,
      "smiles": 4856,
      "peak": 4857,
      "calls": 4858,
      "silks": 4859,
      "hearts": 4860,
      "glit": 4861,
      "ext": 4862,
      "garb": 4863,
      "Blackwood": 4864,
      "counted": 4865,
      "dreamt": 4866,
      "Arstan": 4867,
      "armorer": 4868,
      "aboard": 4869,
      "gestured": 4870,
      "retch": 4871,
      "stripped": 4872,
      "portcull": 4873,
      "consider": 4874,
      "shrug": 4875,
      "tiny": 4876,
      "pines": 4877,
      "escaped": 4878,
      "signed": 4879,
      "kitchen": 4880,
      "alleys": 4881,
      "cities": 4882,
      "combat": 4883,
      "CHAPTER": 4884,
      "fault": 4885,
      "Cra": 4886,
      "Gen": 4887,
      "Later": 4888,
      "grot": 4889,
      "lamp": 4890,
      "mat": 4891,
      "tes": 4892,
      "tter": 4893,
      "wretched": 4894,
      "asel": 4895,
      "nod": 4896,
      "rick": 4897,
      "lier": 4898,
      "forge": 4899,
      "ceiling": 4900,
      "hodor": 4901,
      "fect": 4902,
      "willing": 4903,
      "boats": 4904,
      "plunder": 4905,
      "longships": 4906,
      "turns": 4907,
      "monsters": 4908,
      "sentin": 4909,
      "astern": 4910,
      "whiskers": 4911,
      "direwolves": 4912,
      "centuries": 4913,
      "tightened": 4914,
      "soldier": 4915,
      "Wyk": 4916,
      "duties": 4917,
      "flowing": 4918,
      "Neck": 4919,
      "counselor": 4920,
      "hounds": 4921,
      "Mummers": 4922,
      "Pretty": 4923,
      "Ask": 4924,
      "Bre": 4925,
      "Name": 4926,
      "bund": 4927,
      "pel": 4928,
      "prey": 4929,
      "uct": 4930,
      "vile": 4931,
      "hast": 4932,
      "islands": 4933,
      "hire": 4934,
      "ays": 4935,
      "nest": 4936,
      "scales": 4937,
      "wines": 4938,
      "mighty": 4939,
      "prophe": 4940,
      "northern": 4941,
      "waits": 4942,
      "greatsword": 4943,
      "Blue": 4944,
      "insist": 4945,
      "spected": 4946,
      "urely": 4947,
      "Harpy": 4948,
      "Him": 4949,
      "snake": 4950,
      "wildfire": 4951,
      "Reed": 4952,
      "prick": 4953,
      "satin": 4954,
      "ENT": 4955,
      "heavily": 4956,
      "purse": 4957,
      "strings": 4958,
      "struggling": 4959,
      "animals": 4960,
      "regard": 4961,
      "jape": 4962,
      "privy": 4963,
      "portcullis": 4964,
      "20": 4965,
      "Bones": 4966,
      "DOR": 4967,
      "LI": 4968,
      "Man": 4969,
      "Mandon": 4970,
      "SS": 4971,
      "bits": 4972,
      "fry": 4973,
      "gain": 4974,
      "hint": 4975,
      "hanged": 4976,
      "ived": 4977,
      "lass": 4978,
      "nie": 4979,
      "sby": 4980,
      "tid": 4981,
      "ture": 4982,
      "hau": 4983,
      "strangers": 4984,
      "bears": 4985,
      "aco": 4986,
      "eschal": 4987,
      "forgiven": 4988,
      "fealty": 4989,
      "ents": 4990,
      "wheeled": 4991,
      "mules": 4992,
      "backs": 4993,
      "brace": 4994,
      "brings": 4995,
      "Rosby": 4996,
      "pole": 4997,
      "thron": 4998,
      "peril": 4999,
      "guy": 5000,
      "beds": 5001,
      "drive": 5002,
      "drifted": 5003,
      "dismounted": 5004,
      "garron": 5005,
      "falls": 5006,
      "snows": 5007,
      "shade": 5008,
      "shove": 5009,
      "honored": 5010,
      "final": 5011,
      "Sudd": 5012,
      "sharpen": 5013,
      "diffi": 5014,
      "cult": 5015,
      "reaching": 5016,
      "Whitebeard": 5017,
      "bury": 5018,
      "Anguy": 5019,
      "skulls": 5020,
      "beginning": 5021,
      "feathers": 5022,
      "queror": 5023,
      "Thir": 5024,
      "spinning": 5025,
      "Protector": 5026,
      "Burn": 5027,
      "Denys": 5028,
      "Gra": 5029,
      "MO": 5030,
      "Word": 5031,
      "fring": 5032,
      "goose": 5033,
      "hum": 5034,
      "pon": 5035,
      "pile": 5036,
      "racks": 5037,
      "tap": 5038,
      "ual": 5039,
      "ham": 5040,
      "stout": 5041,
      "mel": 5042,
      "rily": 5043,
      "ribs": 5044,
      "limp": 5045,
      "unged": 5046,
      "chunk": 5047,
      "blond": 5048,
      "upper": 5049,
      "rape": 5050,
      "aren": 5051,
      "otherwise": 5052,
      "wanting": 5053,
      "inks": 5054,
      "flashed": 5055,
      "exchanged": 5056,
      "market": 5057,
      "Cotter": 5058,
      "choked": 5059,
      "fearsome": 5060,
      "meaning": 5061,
      "freer": 5062,
      "grows": 5063,
      "priests": 5064,
      "lances": 5065,
      "paused": 5066,
      "shivered": 5067,
      "blankets": 5068,
      "blaze": 5069,
      "Company": 5070,
      "prisoner": 5071,
      "Tyroshi": 5072,
      "limbs": 5073,
      "sufficient": 5074,
      "difficult": 5075,
      "Ale": 5076,
      "Dy": 5077,
      "Den": 5078,
      "Paul": 5079,
      "Tanda": 5080,
      "Ur": 5081,
      "Yar": 5082,
      "brie": 5083,
      "cun": 5084,
      "gy": 5085,
      "stain": 5086,
      "sevent": 5087,
      "nois": 5088,
      "aya": 5089,
      "ague": 5090,
      "manhood": 5091,
      "goats": 5092,
      "rush": 5093,
      "ruby": 5094,
      "Stay": 5095,
      "scorn": 5096,
      "pots": 5097,
      "dice": 5098,
      "content": 5099,
      "ggling": 5100,
      "chick": 5101,
      "esterday": 5102,
      "ular": 5103,
      "keeping": 5104,
      "ONE": 5105,
      "driving": 5106,
      "sweetling": 5107,
      "THER": 5108,
      "intent": 5109,
      "promises": 5110,
      "boot": 5111,
      "Rivers": 5112,
      "further": 5113,
      "trap": 5114,
      "trail": 5115,
      "sorts": 5116,
      "startled": 5117,
      "strangely": 5118,
      "branch": 5119,
      "tangle": 5120,
      "Horse": 5121,
      "defeat": 5122,
      "pavilion": 5123,
      "Lothar": 5124,
      "grotes": 5125,
      "24": 5126,
      "BRO": 5127,
      "Em": 5128,
      "KING": 5129,
      "Put": 5130,
      "Tit": 5131,
      "Trant": 5132,
      "USE": 5133,
      "cakes": 5134,
      "hn": 5135,
      "jade": 5136,
      "ker": 5137,
      "knot": 5138,
      "pace": 5139,
      "rit": 5140,
      "lets": 5141,
      "orders": 5142,
      "sheath": 5143,
      "hopped": 5144,
      "offic": 5145,
      "peered": 5146,
      "auburn": 5147,
      "lesser": 5148,
      "tors": 5149,
      "anging": 5150,
      "breathe": 5151,
      "igned": 5152,
      "helpless": 5153,
      "mouths": 5154,
      "trueborn": 5155,
      "hostages": 5156,
      "gaze": 5157,
      "crushed": 5158,
      "Without": 5159,
      "liness": 5160,
      "Viserion": 5161,
      "middle": 5162,
      "concerned": 5163,
      "creatures": 5164,
      "spikes": 5165,
      "belonged": 5166,
      "Timett": 5167,
      "continued": 5168,
      "Dustin": 5169,
      "Whispering": 5170,
      "Bracken": 5171,
      "Suddenly": 5172,
      "\".": 5173,
      "25": 5174,
      "GO": 5175,
      "Gro": 5176,
      "Hold": 5177,
      "ION": 5178,
      "Nine": 5179,
      "PR": 5180,
      "Sword": 5181,
      "Wun": 5182,
      "WOOD": 5183,
      "ben": 5184,
      "duck": 5185,
      "ech": 5186,
      "gered": 5187,
      "glove": 5188,
      "mouse": 5189,
      "matched": 5190,
      "inv": 5191,
      "isk": 5192,
      "asy": 5193,
      "llys": 5194,
      "stench": 5195,
      "melted": 5196,
      "Ther": 5197,
      "forgot": 5198,
      "aling": 5199,
      "outlaw": 5200,
      "defi": 5201,
      "onglass": 5202,
      "spray": 5203,
      "folded": 5204,
      "tive": 5205,
      "abrup": 5206,
      "handmaids": 5207,
      "sucked": 5208,
      "lordling": 5209,
      "orns": 5210,
      "warning": 5211,
      "flapped": 5212,
      "silvery": 5213,
      "underneath": 5214,
      "bowels": 5215,
      "restless": 5216,
      "courte": 5217,
      "Mole": 5218,
      "reading": 5219,
      "supp": 5220,
      "puff": 5221,
      "pushing": 5222,
      "cession": 5223,
      "apples": 5224,
      "protected": 5225,
      "protection": 5226,
      "leaning": 5227,
      "frighten": 5228,
      "charged": 5229,
      "Lollys": 5230,
      "villages": 5231,
      "New": 5232,
      "scratched": 5233,
      "Piper": 5234,
      "debts": 5235,
      "possible": 5236,
      "whirled": 5237,
      "Wedding": 5238,
      "important": 5239,
      "23": 5240,
      "Harm": 5241,
      "Lyn": 5242,
      "Obar": 5243,
      "Run": 5244,
      "Say": 5245,
      "Vi": 5246,
      "aven": 5247,
      "bind": 5248,
      "pan": 5249,
      "rons": 5250,
      "twins": 5251,
      "stabbed": 5252,
      "fewer": 5253,
      "modest": 5254,
      "quil": 5255,
      "endless": 5256,
      "anyway": 5257,
      "poppy": 5258,
      "slung": 5259,
      "serp": 5260,
      "cris": 5261,
      "crashed": 5262,
      "greater": 5263,
      "gets": 5264,
      "smallclothes": 5265,
      "ffled": 5266,
      "mothers": 5267,
      "Barrow": 5268,
      "snif": 5269,
      "desire": 5270,
      "Beasts": 5271,
      "ANE": 5272,
      "speaks": 5273,
      "immen": 5274,
      "awake": 5275,
      "crimes": 5276,
      "root": 5277,
      "gathering": 5278,
      "Steward": 5279,
      "jerkin": 5280,
      "pillow": 5281,
      "eagle": 5282,
      "spilled": 5283,
      "laza": 5284,
      "Desmond": 5285,
      "searching": 5286,
      "collapsed": 5287,
      "benches": 5288,
      "Obara": 5289,
      "10": 5290,
      "26": 5291,
      "Fing": 5292,
      "Must": 5293,
      "Ru": 5294,
      "Stop": 5295,
      "Turn": 5296,
      "TAR": 5297,
      "bathed": 5298,
      "eastern": 5299,
      "ky": 5300,
      "mast": 5301,
      "olo": 5302,
      "osi": 5303,
      "packed": 5304,
      "heed": 5305,
      "anno": 5306,
      "instru": 5307,
      "respect": 5308,
      "haro": 5309,
      "orph": 5310,
      "roses": 5311,
      "account": 5312,
      "utter": 5313,
      "forts": 5314,
      "Help": 5315,
      "demon": 5316,
      "spring": 5317,
      "ruined": 5318,
      "abandon": 5319,
      "rance": 5320,
      "Stranger": 5321,
      "bray": 5322,
      "gives": 5323,
      "serje": 5324,
      "wars": 5325,
      "flower": 5326,
      "Blount": 5327,
      "Cerwyn": 5328,
      "glist": 5329,
      "marching": 5330,
      "colder": 5331,
      "rags": 5332,
      "shot": 5333,
      "studded": 5334,
      "praying": 5335,
      "raiders": 5336,
      "trimmed": 5337,
      "points": 5338,
      "happening": 5339,
      "Poor": 5340,
      "Westerosi": 5341,
      "Stormcrows": 5342,
      "street": 5343,
      "eunuchs": 5344,
      "patched": 5345,
      "Longclaw": 5346,
      "southron": 5347,
      "drawbridge": 5348,
      "approached": 5349,
      "glimpse": 5350,
      "traitors": 5351,
      "damned": 5352,
      "trembling": 5353,
      "animal": 5354,
      "polite": 5355,
      "polished": 5356,
      "Biter": 5357,
      "lurched": 5358,
      "Besides": 5359,
      "fortunate": 5360,
      "gaoler": 5361,
      "Dywen": 5362,
      "Viper": 5363,
      "sniffing": 5364,
      "27": 5365,
      "28": 5366,
      "DON": 5367,
      "Garden": 5368,
      "HE": 5369,
      "Next": 5370,
      "Poo": 5371,
      "Rak": 5372,
      "Sister": 5373,
      "WY": 5374,
      "Wa": 5375,
      "Xho": 5376,
      "bony": 5377,
      "cream": 5378,
      "cared": 5379,
      "mbling": 5380,
      "nails": 5381,
      "sits": 5382,
      "rebellion": 5383,
      "asks": 5384,
      "arrange": 5385,
      "amuse": 5386,
      "manner": 5387,
      "deaf": 5388,
      "nowhere": 5389,
      "rying": 5390,
      "spend": 5391,
      "spared": 5392,
      "fog": 5393,
      "appe": 5394,
      "oldest": 5395,
      "trump": 5396,
      "wny": 5397,
      "opening": 5398,
      "Harry": 5399,
      "setting": 5400,
      "Reach": 5401,
      "Pray": 5402,
      "moments": 5403,
      "pudd": 5404,
      "barred": 5405,
      "Hightower": 5406,
      "floating": 5407,
      "kisses": 5408,
      "gallery": 5409,
      "visions": 5410,
      "priestess": 5411,
      "griev": 5412,
      "znys": 5413,
      "Yohn": 5414,
      "itors": 5415,
      "bricks": 5416,
      "Shireen": 5417,
      "pigs": 5418,
      "suffered": 5419,
      "weapon": 5420,
      "dungeon": 5421,
      "Compan": 5422,
      "addled": 5423,
      "storms": 5424,
      "nurse": 5425,
      "despite": 5426,
      "feeble": 5427,
      "blurted": 5428,
      "drums": 5429,
      "wealth": 5430,
      "lonely": 5431,
      "fryd": 5432,
      "Yarwyck": 5433,
      "Rakharo": 5434,
      "19": 5435,
      "29": 5436,
      "ALL": 5437,
      "Jarl": 5438,
      "Kra": 5439,
      "Vaes": 5440,
      "Yron": 5441,
      "cence": 5442,
      "cask": 5443,
      "dwind": 5444,
      "mood": 5445,
      "tling": 5446,
      "ines": 5447,
      "reve": 5448,
      "ashore": 5449,
      "roth": 5450,
      "veins": 5451,
      "oomed": 5452,
      "forbid": 5453,
      "soiled": 5454,
      "coast": 5455,
      "amused": 5456,
      "ardis": 5457,
      "ilk": 5458,
      "deer": 5459,
      "sprout": 5460,
      "mule": 5461,
      "sult": 5462,
      "mming": 5463,
      "Robin": 5464,
      "Andals": 5465,
      "peas": 5466,
      "harbor": 5467,
      "guil": 5468,
      "clu": 5469,
      "proof": 5470,
      "lights": 5471,
      "captured": 5472,
      "waif": 5473,
      "darker": 5474,
      "guarded": 5475,
      "liege": 5476,
      "spot": 5477,
      "sixty": 5478,
      "gatehouse": 5479,
      "INCE": 5480,
      "person": 5481,
      "tub": 5482,
      "Raym": 5483,
      "Conqueror": 5484,
      "smoot": 5485,
      "visited": 5486,
      "freedmen": 5487,
      "suspiciously": 5488,
      "Time": 5489,
      "Square": 5490,
      "relief": 5491,
      "PRINCE": 5492,
      "Poole": 5493,
      "Kraznys": 5494,
      "13": 5495,
      "15": 5496,
      "44": 5497,
      "Slayer": 5498,
      "Tick": 5499,
      "Vardis": 5500,
      "bart": 5501,
      "cers": 5502,
      "cats": 5503,
      "caver": 5504,
      "gasped": 5505,
      "iv": 5506,
      "pans": 5507,
      "vas": 5508,
      "wris": 5509,
      "wroth": 5510,
      "ouched": 5511,
      "resc": 5512,
      "halt": 5513,
      "stered": 5514,
      "ric": 5515,
      "ordered": 5516,
      "lic": 5517,
      "moat": 5518,
      "motion": 5519,
      "entire": 5520,
      "shuff": 5521,
      "bolt": 5522,
      "apolo": 5523,
      "eling": 5524,
      "comet": 5525,
      "wherever": 5526,
      "bedding": 5527,
      "Dome": 5528,
      "drift": 5529,
      "Marbrand": 5530,
      "curses": 5531,
      "Botley": 5532,
      "chers": 5533,
      "septons": 5534,
      "crystal": 5535,
      "Poll": 5536,
      "viol": 5537,
      "delic": 5538,
      "Seaworth": 5539,
      "HOUSE": 5540,
      "terrace": 5541,
      "preferred": 5542,
      "trading": 5543,
      "Galbart": 5544,
      "inclined": 5545,
      "shimmer": 5546,
      "wights": 5547,
      "jewels": 5548,
      "ransom": 5549,
      "Flint": 5550,
      "abruptly": 5551,
      "Companions": 5552,
      "wrists": 5553,
      "16": 5554,
      "17": 5555,
      "18": 5556,
      "AM": 5557,
      "Dalla": 5558,
      "Fat": 5559,
      "Fair": 5560,
      "HI": 5561,
      "Mik": 5562,
      "Qar": 5563,
      "Show": 5564,
      "Surely": 5565,
      "Wen": 5566,
      "dar": 5567,
      "gal": 5568,
      "nake": 5569,
      "ude": 5570,
      "vasse": 5571,
      "reins": 5572,
      "admir": 5573,
      "rushes": 5574,
      "mush": 5575,
      "teats": 5576,
      "tearing": 5577,
      "Tytos": 5578,
      "suspected": 5579,
      "smash": 5580,
      "audi": 5581,
      "linging": 5582,
      "worm": 5583,
      "maegi": 5584,
      "Dore": 5585,
      "rides": 5586,
      "snakes": 5587,
      "sunset": 5588,
      "Arch": 5589,
      "cutting": 5590,
      "whispers": 5591,
      "Isles": 5592,
      "floated": 5593,
      "spearmen": 5594,
      "chests": 5595,
      "Meereenese": 5596,
      "mutton": 5597,
      "silently": 5598,
      "Dornishman": 5599,
      "wiser": 5600,
      "hideous": 5601,
      "stiffly": 5602,
      "staggered": 5603,
      "freedom": 5604,
      "yielded": 5605,
      "spiked": 5606,
      "vault": 5607,
      "cooked": 5608,
      "IGH": 5609,
      "swinging": 5610,
      "Saltpans": 5611,
      "fisher": 5612,
      "tidings": 5613,
      "Polliver": 5614,
      "Brun": 5615,
      "Cold": 5616,
      "Crabb": 5617,
      "Dayne": 5618,
      "Ha": 5619,
      "IC": 5620,
      "Jack": 5621,
      "fut": 5622,
      "farm": 5623,
      "iz": 5624,
      "jumped": 5625,
      "jagged": 5626,
      "nature": 5627,
      "pted": 5628,
      "pic": 5629,
      "wart": 5630,
      "rew": 5631,
      "eni": 5632,
      "dece": 5633,
      "theirs": 5634,
      "tice": 5635,
      "elk": 5636,
      "Step": 5637,
      "Stones": 5638,
      "figu": 5639,
      "poked": 5640,
      "sip": 5641,
      "harmed": 5642,
      "shift": 5643,
      "bett": 5644,
      "ERYS": 5645,
      "halfway": 5646,
      "crash": 5647,
      "dragonglass": 5648,
      "Host": 5649,
      "Somehow": 5650,
      "bowmen": 5651,
      "certainty": 5652,
      "miser": 5653,
      "Seast": 5654,
      "returning": 5655,
      "Lyanna": 5656,
      "visor": 5657,
      "crypts": 5658,
      "plainly": 5659,
      "tightly": 5660,
      "fitting": 5661,
      "woolen": 5662,
      "Shaggy": 5663,
      "crawl": 5664,
      "ELLA": 5665,
      "subje": 5666,
      "stubbornly": 5667,
      "Bitter": 5668,
      "pyramids": 5669,
      "ificence": 5670,
      "mourn": 5671,
      "melting": 5672,
      "Rhoyne": 5673,
      "scouts": 5674,
      "Tallhar": 5675,
      "Waters": 5676,
      "Waynwood": 5677,
      "happily": 5678,
      "beckoned": 5679,
      "Titan": 5680,
      "immense": 5681,
      "Yronwood": 5682,
      "Tickler": 5683,
      "35": 5684,
      "36": 5685,
      "38": 5686,
      "BO": 5687,
      "HOR": 5688,
      "Since": 5689,
      "Swy": 5690,
      "TO": 5691,
      "UR": 5692,
      "ease": 5693,
      "han": 5694,
      "lamb": 5695,
      "nay": 5696,
      "palm": 5697,
      "raced": 5698,
      "theen": 5699,
      "sees": 5700,
      "actu": 5701,
      "agard": 5702,
      "aken": 5703,
      "spark": 5704,
      "sport": 5705,
      "antic": 5706,
      "broth": 5707,
      "Star": 5708,
      "scale": 5709,
      "rowed": 5710,
      "pos": 5711,
      "posit": 5712,
      "comely": 5713,
      "perfu": 5714,
      "flap": 5715,
      "Dawn": 5716,
      "Hobb": 5717,
      "discu": 5718,
      "despair": 5719,
      "Seagard": 5720,
      "ENERYS": 5721,
      "crust": 5722,
      "boom": 5723,
      "Death": 5724,
      "vision": 5725,
      "breaker": 5726,
      "charred": 5727,
      "YNE": 5728,
      "claims": 5729,
      "patient": 5730,
      "refu": 5731,
      "colle": 5732,
      "Justin": 5733,
      "quarter": 5734,
      "Crows": 5735,
      "DAENERYS": 5736,
      "family": 5737,
      "Shy": 5738,
      "roughspun": 5739,
      "coward": 5740,
      "swirled": 5741,
      "slope": 5742,
      "Giants": 5743,
      "Again": 5744,
      "Garin": 5745,
      "continue": 5746,
      "vengeance": 5747,
      "filthy": 5748,
      "mortal": 5749,
      "practice": 5750,
      "recognized": 5751,
      "cranno": 5752,
      "beggar": 5753,
      "Crake": 5754,
      "ponder": 5755,
      "Qartheen": 5756,
      "Swyft": 5757,
      "37": 5758,
      "39": 5759,
      "40": 5760,
      "Chair": 5761,
      "Gor": 5762,
      "NE": 5763,
      "Swords": 5764,
      "UM": 5765,
      "equ": 5766,
      "fate": 5767,
      "frail": 5768,
      "ips": 5769,
      "jars": 5770,
      "mill": 5771,
      "patch": 5772,
      "plot": 5773,
      "sins": 5774,
      "trunk": 5775,
      "yesterday": 5776,
      "insol": 5777,
      "stumbling": 5778,
      "owe": 5779,
      "hissed": 5780,
      "ropes": 5781,
      "lice": 5782,
      "soil": 5783,
      "sparrows": 5784,
      "abed": 5785,
      "kingsmoot": 5786,
      "Tyene": 5787,
      "Rosl": 5788,
      "sche": 5789,
      "knowledge": 5790,
      "sigh": 5791,
      "ounce": 5792,
      "crashing": 5793,
      "Holiness": 5794,
      "putting": 5795,
      "gargo": 5796,
      "curved": 5797,
      "doubts": 5798,
      "finest": 5799,
      "screams": 5800,
      "corre": 5801,
      "lads": 5802,
      "rotten": 5803,
      "masters": 5804,
      "beaten": 5805,
      "pretend": 5806,
      "Edwyn": 5807,
      "Halfmaester": 5808,
      "sliding": 5809,
      "strand": 5810,
      "dirty": 5811,
      "quarters": 5812,
      "famous": 5813,
      "pouring": 5814,
      "shiny": 5815,
      "writing": 5816,
      "granted": 5817,
      "jaws": 5818,
      "casks": 5819,
      "vaulted": 5820,
      "shrieked": 5821,
      "Garlan": 5822,
      "circled": 5823,
      "Tyrosh": 5824,
      "Frog": 5825,
      "Elsewise": 5826,
      "numbers": 5827,
      "snarling": 5828,
      "elephants": 5829,
      "Wendel": 5830,
      "Brune": 5831,
      "Seastone": 5832,
      "Roslin": 5833,
      ",’": 5834,
      "30": 5835,
      "45": 5836,
      "46": 5837,
      "47": 5838,
      "48": 5839,
      "49": 5840,
      "Cort": 5841,
      "Find": 5842,
      "Jace": 5843,
      "Mud": 5844,
      "MUN": 5845,
      "Nimble": 5846,
      "PER": 5847,
      "awaits": 5848,
      "dened": 5849,
      "fang": 5850,
      "pies": 5851,
      "patter": 5852,
      "racing": 5853,
      "tren": 5854,
      "vive": 5855,
      "“—": 5856,
      "inced": 5857,
      "edged": 5858,
      "envoy": 5859,
      "thood": 5860,
      "ghthood": 5861,
      "iding": 5862,
      "nov": 5863,
      "unched": 5864,
      "blows": 5865,
      "losing": 5866,
      "locks": 5867,
      "rare": 5868,
      "depart": 5869,
      "destro": 5870,
      "woken": 5871,
      "rushed": 5872,
      "usion": 5873,
      "brut": 5874,
      "shaved": 5875,
      "Whenever": 5876,
      "pered": 5877,
      "warn": 5878,
      "crone": 5879,
      "ARR": 5880,
      "followers": 5881,
      "largest": 5882,
      "barrels": 5883,
      "ankle": 5884,
      "Lemore": 5885,
      "THEON": 5886,
      "sailing": 5887,
      "zzle": 5888,
      "frost": 5889,
      "atures": 5890,
      "grandsons": 5891,
      "Lothor": 5892,
      "comfortably": 5893,
      "Cleon": 5894,
      "buildings": 5895,
      "shutters": 5896,
      "deserted": 5897,
      "afford": 5898,
      "Lyseni": 5899,
      "stirring": 5900,
      "threatened": 5901,
      "sleeves": 5902,
      "crabs": 5903,
      "prisoners": 5904,
      "flickering": 5905,
      "accused": 5906,
      "pearls": 5907,
      "prepared": 5908,
      "Genna": 5909,
      "cunning": 5910,
      "Emmett": 5911,
      "audience": 5912,
      "Doreah": 5913,
      "Crakehall": 5914,
      "Cortnay": 5915,
      "Bru": 5916,
      "Bull": 5917,
      "Bright": 5918,
      "Port": 5919,
      "Rha": 5920,
      "Sit": 5921,
      "afire": 5922,
      "awaited": 5923,
      "bark": 5924,
      "doomed": 5925,
      "ior": 5926,
      "kins": 5927,
      "pis": 5928,
      "pul": 5929,
      "pier": 5930,
      "soo": 5931,
      "sank": 5932,
      "tories": 5933,
      "arched": 5934,
      "owl": 5935,
      "escor": 5936,
      "adv": 5937,
      "ribb": 5938,
      "unks": 5939,
      "uneasy": 5940,
      "mob": 5941,
      "ament": 5942,
      "logs": 5943,
      "raising": 5944,
      "deter": 5945,
      "tie": 5946,
      "plunged": 5947,
      "pox": 5948,
      "harvest": 5949,
      "grunted": 5950,
      "slash": 5951,
      "aimed": 5952,
      "prof": 5953,
      "flakes": 5954,
      "crad": 5955,
      "challen": 5956,
      "rung": 5957,
      "driven": 5958,
      "dismay": 5959,
      "fighters": 5960,
      "wolfs": 5961,
      "curls": 5962,
      "push": 5963,
      "slick": 5964,
      "useless": 5965,
      "barked": 5966,
      "attacked": 5967,
      "Within": 5968,
      "rotted": 5969,
      "towns": 5970,
      "defen": 5971,
      "muttering": 5972,
      "decide": 5973,
      "barefoot": 5974,
      "draped": 5975,
      "midday": 5976,
      "witness": 5977,
      "Osfryd": 5978,
      "innocence": 5979,
      "MONT": 5980,
      "Hunter": 5981,
      "Silence": 5982,
      "fucking": 5983,
      "squeezed": 5984,
      "cripple": 5985,
      "balls": 5986,
      "bellowed": 5987,
      "Corbray": 5988,
      "farewell": 5989,
      "chased": 5990,
      "shorter": 5991,
      "wandering": 5992,
      "Wait": 5993,
      "cavern": 5994,
      "fangs": 5995,
      "Bless": 5996,
      "Corn": 5997,
      "Dun": 5998,
      "Dam": 5999,
      "Edric": 6000,
      "Fool": 6001,
      "Owen": 6002,
      "PE": 6003,
      "Tattered": 6004,
      "Vy": 6005,
      "Were": 6006,
      "frag": 6007,
      "nes": 6008,
      "rhy": 6009,
      "swell": 6010,
      "tank": 6011,
      "vious": 6012,
      "inting": 6013,
      "ouch": 6014,
      "reined": 6015,
      "haust": 6016,
      "token": 6017,
      "asha": 6018,
      "lling": 6019,
      "stale": 6020,
      "stakes": 6021,
      "beer": 6022,
      "beats": 6023,
      "accus": 6024,
      "nostri": 6025,
      "rifi": 6026,
      "lick": 6027,
      "forged": 6028,
      "noted": 6029,
      "butt": 6030,
      "cog": 6031,
      "coiled": 6032,
      "choo": 6033,
      "chunks": 6034,
      "destri": 6035,
      "ties": 6036,
      "geld": 6037,
      "plum": 6038,
      "Styr": 6039,
      "shapes": 6040,
      "shafts": 6041,
      "harsh": 6042,
      "dden": 6043,
      "worms": 6044,
      "worship": 6045,
      "needles": 6046,
      "prospect": 6047,
      "killer": 6048,
      "helping": 6049,
      "explo": 6050,
      "speech": 6051,
      "finding": 6052,
      "fearful": 6053,
      "survive": 6054,
      "skinned": 6055,
      "ringmail": 6056,
      "Toad": 6057,
      "shocked": 6058,
      "honors": 6059,
      "cial": 6060,
      "selling": 6061,
      "Willas": 6062,
      "kindness": 6063,
      "ladder": 6064,
      "impat": 6065,
      "ranging": 6066,
      "streams": 6067,
      "streaming": 6068,
      "reluct": 6069,
      "langu": 6070,
      "knock": 6071,
      "grove": 6072,
      "fiercely": 6073,
      "bitterly": 6074,
      "blaz": 6075,
      "Magnificence": 6076,
      "stableboy": 6077,
      "heroes": 6078,
      "swaying": 6079,
      "True": 6080,
      "crippled": 6081,
      "convinced": 6082,
      "nervous": 6083,
      "mammoths": 6084,
      "freeriders": 6085,
      "guilty": 6086,
      "escorted": 6087,
      "Masse": 6088,
      "Neither": 6089,
      "Pat": 6090,
      "Pass": 6091,
      "ULL": 6092,
      "Wise": 6093,
      "awed": 6094,
      "bai": 6095,
      "bared": 6096,
      "cries": 6097,
      "camps": 6098,
      "drum": 6099,
      "hon": 6100,
      "mered": 6101,
      "plaza": 6102,
      "qor": 6103,
      "slaughter": 6104,
      "vul": 6105,
      "yck": 6106,
      "regre": 6107,
      "andered": 6108,
      "meas": 6109,
      "attempt": 6110,
      "sealed": 6111,
      "beef": 6112,
      "idence": 6113,
      "rots": 6114,
      "roaring": 6115,
      "vels": 6116,
      "accom": 6117,
      "adiance": 6118,
      "urse": 6119,
      "female": 6120,
      "chor": 6121,
      "amusing": 6122,
      "loc": 6123,
      "ckles": 6124,
      "departed": 6125,
      "platter": 6126,
      "looming": 6127,
      "lordlings": 6128,
      "ately": 6129,
      "scri": 6130,
      "scare": 6131,
      "fixed": 6132,
      "thrall": 6133,
      "haris": 6134,
      "harpy": 6135,
      "horiz": 6136,
      "ishment": 6137,
      "contr": 6138,
      "flaming": 6139,
      "bleak": 6140,
      "clasped": 6141,
      "provo": 6142,
      "darkened": 6143,
      "Somewhere": 6144,
      "trout": 6145,
      "Moqor": 6146,
      "knuck": 6147,
      "attended": 6148,
      "quicker": 6149,
      "fishing": 6150,
      "difference": 6151,
      "knighthood": 6152,
      "frog": 6153,
      "cyvasse": 6154,
      "Donnel": 6155,
      "Through": 6156,
      "patience": 6157,
      "wishes": 6158,
      "valor": 6159,
      "custom": 6160,
      "nipples": 6161,
      "companion": 6162,
      "embro": 6163,
      "echoing": 6164,
      "stewards": 6165,
      "grasped": 6166,
      "spike": 6167,
      "TTLE": 6168,
      "maps": 6169,
      "roasted": 6170,
      "devour": 6171,
      "lucky": 6172,
      "Yellow": 6173,
      "Fleet": 6174,
      "sacred": 6175,
      "scowled": 6176,
      "Naharis": 6177,
      "galloped": 6178,
      "grotesque": 6179,
      "serpent": 6180,
      "Stonesnake": 6181,
      "Hosteen": 6182,
      "Tallhart": 6183,
      "crannog": 6184,
      "Jacelyn": 6185,
      "Massey": 6186,
      "Moqorro": 6187,
      "Cross": 6188,
      "Ell": 6189,
      "Faly": 6190,
      "Jason": 6191,
      "Moo": 6192,
      "Ron": 6193,
      "Rys": 6194,
      "Sor": 6195,
      "Torn": 6196,
      "WE": 6197,
      "cord": 6198,
      "chim": 6199,
      "humble": 6200,
      "laced": 6201,
      "obed": 6202,
      "ras": 6203,
      "sly": 6204,
      "sne": 6205,
      "tender": 6206,
      "vron": 6207,
      "inform": 6208,
      "reas": 6209,
      "haste": 6210,
      "tops": 6211,
      "ename": 6212,
      "enched": 6213,
      "ths": 6214,
      "agony": 6215,
      "western": 6216,
      "sobbing": 6217,
      "coarse": 6218,
      "shri": 6219,
      "shanks": 6220,
      "muffled": 6221,
      "offering": 6222,
      "earned": 6223,
      "closing": 6224,
      "Robett": 6225,
      "armies": 6226,
      "perched": 6227,
      "ishing": 6228,
      "Hero": 6229,
      "stock": 6230,
      "commanding": 6231,
      "bucket": 6232,
      "Marq": 6233,
      "cursing": 6234,
      "current": 6235,
      "skinch": 6236,
      "prize": 6237,
      "honorable": 6238,
      "starve": 6239,
      "chestnut": 6240,
      "returns": 6241,
      "pointing": 6242,
      "splash": 6243,
      "smoking": 6244,
      "crime": 6245,
      "aggering": 6246,
      "swim": 6247,
      "persu": 6248,
      "tugged": 6249,
      "gardens": 6250,
      "babes": 6251,
      "healthy": 6252,
      "signs": 6253,
      "fifth": 6254,
      "drawing": 6255,
      "spreading": 6256,
      "Between": 6257,
      "simply": 6258,
      "cooks": 6259,
      "basket": 6260,
      "BERT": 6261,
      "Qohor": 6262,
      "coughing": 6263,
      "cushions": 6264,
      "disturb": 6265,
      "acoly": 6266,
      "courteous": 6267,
      "Mikken": 6268,
      "discuss": 6269,
      "wolfswood": 6270,
      "nostrils": 6271,
      "horizon": 6272,
      "Falyse": 6273,
      "Ryswell": 6274,
      "50": 6275,
      "56": 6276,
      "Aenys": 6277,
      "CO": 6278,
      "Cre": 6279,
      "CER": 6280,
      "GRE": 6281,
      "Patch": 6282,
      "Qarl": 6283,
      "Save": 6284,
      "Tris": 6285,
      "WELL": 6286,
      "ctions": 6287,
      "iet": 6288,
      "lab": 6289,
      "lakes": 6290,
      "slight": 6291,
      "vali": 6292,
      "“…": 6293,
      "theless": 6294,
      "remove": 6295,
      "ited": 6296,
      "wield": 6297,
      "riously": 6298,
      "uncomfortable": 6299,
      "shell": 6300,
      "ality": 6301,
      "delight": 6302,
      "womb": 6303,
      "ssow": 6304,
      "scour": 6305,
      "turnips": 6306,
      "dizz": 6307,
      "horror": 6308,
      "perfect": 6309,
      "Whent": 6310,
      "mustache": 6311,
      "flin": 6312,
      "landing": 6313,
      "garrons": 6314,
      "standard": 6315,
      "snapping": 6316,
      "layers": 6317,
      "messages": 6318,
      "shock": 6319,
      "closely": 6320,
      "barrel": 6321,
      "Meris": 6322,
      "attent": 6323,
      "rains": 6324,
      "hides": 6325,
      "realize": 6326,
      "paying": 6327,
      "grab": 6328,
      "Bronze": 6329,
      "hooded": 6330,
      "chainmail": 6331,
      "torchlight": 6332,
      "sadly": 6333,
      "Symon": 6334,
      "scrawny": 6335,
      "crackling": 6336,
      "faintly": 6337,
      "courtesies": 6338,
      "travel": 6339,
      "Fossow": 6340,
      "pressing": 6341,
      "yawn": 6342,
      "seasoned": 6343,
      "squeeze": 6344,
      "sacrifi": 6345,
      "funny": 6346,
      "Steelshanks": 6347,
      "princes": 6348,
      "excuse": 6349,
      "disappoint": 6350,
      "pepper": 6351,
      "niece": 6352,
      "serjeant": 6353,
      "Tornmen": 6354,
      "Patchface": 6355,
      ".’": 6356,
      "Abel": 6357,
      "EEN": 6358,
      "FF": 6359,
      "Fear": 6360,
      "Hal": 6361,
      "Hunt": 6362,
      "IR": 6363,
      "Milk": 6364,
      "NOR": 6365,
      "Sn": 6366,
      "Tears": 6367,
      "Yand": 6368,
      "cunt": 6369,
      "dwell": 6370,
      "eter": 6371,
      "fists": 6372,
      "gwell": 6373,
      "iest": 6374,
      "kery": 6375,
      "mal": 6376,
      "mined": 6377,
      "piled": 6378,
      "tour": 6379,
      "wrest": 6380,
      "toe": 6381,
      "thump": 6382,
      "ara": 6383,
      "meals": 6384,
      "itch": 6385,
      "wasted": 6386,
      "features": 6387,
      "mantle": 6388,
      "weren": 6389,
      "whel": 6390,
      "quin": 6391,
      "usual": 6392,
      "grease": 6393,
      "swordbelt": 6394,
      "fathers": 6395,
      "grunt": 6396,
      "howl": 6397,
      "mailed": 6398,
      "produ": 6399,
      "sweeter": 6400,
      "tress": 6401,
      "keeper": 6402,
      "carpet": 6403,
      "carrots": 6404,
      "Colemon": 6405,
      "Forgive": 6406,
      "wildly": 6407,
      "surd": 6408,
      "smelling": 6409,
      "beards": 6410,
      "slim": 6411,
      "useful": 6412,
      "warmer": 6413,
      "STAR": 6414,
      "innamon": 6415,
      "rookery": 6416,
      "Rhaegal": 6417,
      "Targaryens": 6418,
      "Wyl": 6419,
      "effort": 6420,
      "Shagwell": 6421,
      "Stevron": 6422,
      "SEP": 6423,
      "Astapori": 6424,
      "Mountains": 6425,
      "MART": 6426,
      "pardons": 6427,
      "delivered": 6428,
      "trembled": 6429,
      "block": 6430,
      "shuddered": 6431,
      "spurred": 6432,
      "thieves": 6433,
      "rattling": 6434,
      "received": 6435,
      "fashion": 6436,
      "Child": 6437,
      "sentinels": 6438,
      "Grazd": 6439,
      "MUND": 6440,
      "bailey": 6441,
      "Yandry": 6442,
      "AE": 6443,
      "Book": 6444,
      "BEN": 6445,
      "BRA": 6446,
      "Fif": 6447,
      "GER": 6448,
      "Honor": 6449,
      "JO": 6450,
      "Nurse": 6451,
      "Open": 6452,
      "Sto": 6453,
      "Shore": 6454,
      "Tal": 6455,
      "West": 6456,
      "barrow": 6457,
      "cass": 6458,
      "due": 6459,
      "ghar": 6460,
      "gloved": 6461,
      "vowed": 6462,
      "aning": 6463,
      "isles": 6464,
      "ites": 6465,
      "acy": 6466,
      "herd": 6467,
      "oney": 6468,
      "alche": 6469,
      "hom": 6470,
      "bler": 6471,
      "asty": 6472,
      "wheels": 6473,
      "box": 6474,
      "timber": 6475,
      "office": 6476,
      "Tysha": 6477,
      "nightmare": 6478,
      "evenfall": 6479,
      "fathered": 6480,
      "bbles": 6481,
      "pleaded": 6482,
      "proclaimed": 6483,
      "Daven": 6484,
      "winding": 6485,
      "carcass": 6486,
      "mere": 6487,
      "ARYA": 6488,
      "courty": 6489,
      "biggest": 6490,
      "dyed": 6491,
      "comple": 6492,
      "barking": 6493,
      "Leo": 6494,
      "safety": 6495,
      "bearing": 6496,
      "seneschal": 6497,
      "bored": 6498,
      "Lorren": 6499,
      "sands": 6500,
      "tutor": 6501,
      "Everyone": 6502,
      "aria": 6503,
      "magn": 6504,
      "pinched": 6505,
      "approval": 6506,
      "pike": 6507,
      "feeding": 6508,
      "struggle": 6509,
      "stealing": 6510,
      "pillars": 6511,
      "suited": 6512,
      "stalked": 6513,
      "Hundred": 6514,
      "defeated": 6515,
      "solemnly": 6516,
      "desperately": 6517,
      "pirate": 6518,
      "pirates": 6519,
      "nervously": 6520,
      "coughed": 6521,
      "flayed": 6522,
      "Dagmer": 6523,
      "forgiveness": 6524,
      "Harma": 6525,
      "actually": 6526,
      "Ellaria": 6527,
      "AK": 6528,
      "CLE": 6529,
      "GON": 6530,
      "Ko": 6531,
      "MM": 6532,
      "Mully": 6533,
      "Othe": 6534,
      "Over": 6535,
      "Raff": 6536,
      "Temp": 6537,
      "dent": 6538,
      "gment": 6539,
      "mild": 6540,
      "sill": 6541,
      "ught": 6542,
      "eras": 6543,
      "recru": 6544,
      "stank": 6545,
      "leo": 6546,
      "roch": 6547,
      "accompan": 6548,
      "noo": 6549,
      "untle": 6550,
      "neys": 6551,
      "ams": 6552,
      "aston": 6553,
      "devo": 6554,
      "woven": 6555,
      "bother": 6556,
      "fox": 6557,
      "lame": 6558,
      "plank": 6559,
      "fig": 6560,
      "post": 6561,
      "peeled": 6562,
      "digging": 6563,
      "serves": 6564,
      "chival": 6565,
      "flowed": 6566,
      "ulous": 6567,
      "clenched": 6568,
      "whipped": 6569,
      "aughter": 6570,
      "chase": 6571,
      "cloaked": 6572,
      "exhaust": 6573,
      "bump": 6574,
      "drifts": 6575,
      "Alleras": 6576,
      "Because": 6577,
      "ferry": 6578,
      "gauntle": 6579,
      "Seal": 6580,
      "suppor": 6581,
      "doubtless": 6582,
      "Nightfort": 6583,
      "impre": 6584,
      "wishing": 6585,
      "rustling": 6586,
      "tucked": 6587,
      "grinning": 6588,
      "solved": 6589,
      "Karhold": 6590,
      "Windblown": 6591,
      "presented": 6592,
      "marks": 6593,
      "suspicious": 6594,
      "grimaced": 6595,
      "champions": 6596,
      "drowning": 6597,
      "glowing": 6598,
      "Silver": 6599,
      "debt": 6600,
      "planted": 6601,
      "occup": 6602,
      "Oakheart": 6603,
      "grumbled": 6604,
      "restore": 6605,
      "sprawled": 6606,
      "sharpened": 6607,
      "tapest": 6608,
      "officers": 6609,
      "Groleo": 6610,
      "crisp": 6611,
      "delicate": 6612,
      "shimmering": 6613,
      "mushrooms": 6614,
      "Shaggydog": 6615,
      "determined": 6616,
      "Blessed": 6617,
      "Damn": 6618,
      "embroidered": 6619,
      "Grazdan": 6620,
      "Othell": 6621,
      "Cha": 6622,
      "Car": 6623,
      "Dance": 6624,
      "Eld": 6625,
      "Ester": 6626,
      "Gates": 6627,
      "Pain": 6628,
      "Ralf": 6629,
      "Radiance": 6630,
      "Sing": 6631,
      "Ter": 6632,
      "Tull": 6633,
      "WAT": 6634,
      "awn": 6635,
      "banks": 6636,
      "crest": 6637,
      "doom": 6638,
      "maimed": 6639,
      "ramp": 6640,
      "tro": 6641,
      "valley": 6642,
      "waddled": 6643,
      "hest": 6644,
      "reared": 6645,
      "hammered": 6646,
      "isle": 6647,
      "tomb": 6648,
      "thur": 6649,
      "lest": 6650,
      "beloved": 6651,
      "rob": 6652,
      "rolls": 6653,
      "accusto": 6654,
      "alliance": 6655,
      "sobbed": 6656,
      "sodden": 6657,
      "cod": 6658,
      "motley": 6659,
      "shr": 6660,
      "docks": 6661,
      "razor": 6662,
      "absurd": 6663,
      "brisk": 6664,
      "forehead": 6665,
      "shamed": 6666,
      "peering": 6667,
      "ullen": 6668,
      "Wex": 6669,
      "woodharp": 6670,
      "working": 6671,
      "hunger": 6672,
      "prob": 6673,
      "Graces": 6674,
      "seize": 6675,
      "squinted": 6676,
      "exam": 6677,
      "fighter": 6678,
      "crescent": 6679,
      "settle": 6680,
      "Arthur": 6681,
      "Quiet": 6682,
      "starved": 6683,
      "crumbling": 6684,
      "guardsman": 6685,
      "report": 6686,
      "gesture": 6687,
      "strip": 6688,
      "REE": 6689,
      "visible": 6690,
      "wrought": 6691,
      "Westerling": 6692,
      "breakfast": 6693,
      "Balerion": 6694,
      "Brorm": 6695,
      "brusque": 6696,
      "ROW": 6697,
      "grandmother": 6698,
      "RIV": 6699,
      "midst": 6700,
      "nip": 6701,
      "TYRE": 6702,
      "Tooth": 6703,
      "belongs": 6704,
      "While": 6705,
      "sausage": 6706,
      "Walton": 6707,
      "dishonor": 6708,
      "permitted": 6709,
      "reports": 6710,
      "caution": 6711,
      "statue": 6712,
      "violently": 6713,
      "Giantsbane": 6714,
      "Stoke": 6715,
      "rochs": 6716,
      "accompanied": 6717,
      "Tullys": 6718,
      "accustomed": 6719,
      "Bold": 6720,
      "Casse": 6721,
      "Gull": 6722,
      "Gared": 6723,
      "Ham": 6724,
      "Near": 6725,
      "Vo": 6726,
      "Wild": 6727,
      "WILL": 6728,
      "cah": 6729,
      "det": 6730,
      "fant": 6731,
      "gout": 6732,
      "ko": 6733,
      "lash": 6734,
      "links": 6735,
      "mish": 6736,
      "pure": 6737,
      "paw": 6738,
      "pious": 6739,
      "sow": 6740,
      "sought": 6741,
      "tum": 6742,
      "waking": 6743,
      "oub": 6744,
      "ingly": 6745,
      "stron": 6746,
      "ghold": 6747,
      "nore": 6748,
      "safer": 6749,
      "rik": 6750,
      "unaware": 6751,
      "hoarse": 6752,
      "cocked": 6753,
      "ighton": 6754,
      "ami": 6755,
      "load": 6756,
      "ckle": 6757,
      "goble": 6758,
      "rue": 6759,
      "anting": 6760,
      "bom": 6761,
      "planned": 6762,
      "loosed": 6763,
      "ranged": 6764,
      "greed": 6765,
      "Strick": 6766,
      "brass": 6767,
      "postern": 6768,
      "tsman": 6769,
      "sipped": 6770,
      "giggled": 6771,
      "Mycah": 6772,
      "bben": 6773,
      "condem": 6774,
      "dding": 6775,
      "warily": 6776,
      "monkey": 6777,
      "presume": 6778,
      "runs": 6779,
      "greatest": 6780,
      "trebu": 6781,
      "special": 6782,
      "intend": 6783,
      "towering": 6784,
      "Godry": 6785,
      "deeply": 6786,
      "compared": 6787,
      "sends": 6788,
      "Left": 6789,
      "impo": 6790,
      "splashed": 6791,
      "Areo": 6792,
      "showing": 6793,
      "zza": 6794,
      "powerful": 6795,
      "deserved": 6796,
      "washing": 6797,
      "leaping": 6798,
      "terrors": 6799,
      "butchered": 6800,
      "eleven": 6801,
      "dusty": 6802,
      "gloomy": 6803,
      "brothels": 6804,
      "OLD": 6805,
      "Truly": 6806,
      "relieved": 6807,
      "Flea": 6808,
      "muscle": 6809,
      "blessed": 6810,
      "eeee": 6811,
      "respond": 6812,
      "Qotho": 6813,
      "Worship": 6814,
      "avoid": 6815,
      "twitched": 6816,
      "Alester": 6817,
      "Gardens": 6818,
      "grievous": 6819,
      "figure": 6820,
      "equal": 6821,
      "Crossing": 6822,
      "Creighton": 6823,
      "attention": 6824,
      "Estermont": 6825,
      "RIVERS": 6826,
      "Stokeworth": 6827,
      "Cassel": 6828,
      "stronghold": 6829,
      "trebuche": 6830,
      "Call": 6831,
      "Done": 6832,
      "Flor": 6833,
      "Jare": 6834,
      "Mon": 6835,
      "Mart": 6836,
      "Off": 6837,
      "PY": 6838,
      "Prest": 6839,
      "bathe": 6840,
      "cure": 6841,
      "dder": 6842,
      "emon": 6843,
      "hing": 6844,
      "jut": 6845,
      "lat": 6846,
      "pap": 6847,
      "pets": 6848,
      "pages": 6849,
      "ually": 6850,
      "vig": 6851,
      "wandered": 6852,
      "heap": 6853,
      "reput": 6854,
      "toss": 6855,
      "stunted": 6856,
      "members": 6857,
      "sels": 6858,
      "washer": 6859,
      "advent": 6860,
      "allegi": 6861,
      "irrit": 6862,
      "agers": 6863,
      "manse": 6864,
      "shown": 6865,
      "dock": 6866,
      "decks": 6867,
      "spy": 6868,
      "usur": 6869,
      "athers": 6870,
      "pledge": 6871,
      "sucking": 6872,
      "ranks": 6873,
      "thanked": 6874,
      "reddened": 6875,
      "oused": 6876,
      "winch": 6877,
      "pom": 6878,
      "posted": 6879,
      "dipped": 6880,
      "divided": 6881,
      "grou": 6882,
      "Weasel": 6883,
      "linger": 6884,
      "contempt": 6885,
      "chilly": 6886,
      "angrily": 6887,
      "goods": 6888,
      "provisions": 6889,
      "Domish": 6890,
      "Maege": 6891,
      "merch": 6892,
      "ahl": 6893,
      "Regent": 6894,
      "Pyat": 6895,
      "northman": 6896,
      "Thenns": 6897,
      "barley": 6898,
      "eased": 6899,
      "Whores": 6900,
      "crude": 6901,
      "bearer": 6902,
      "appet": 6903,
      "protested": 6904,
      "protector": 6905,
      "Lorch": 6906,
      "breathless": 6907,
      "pays": 6908,
      "obli": 6909,
      "sickly": 6910,
      "Crone": 6911,
      "favored": 6912,
      "Gerold": 6913,
      "oaken": 6914,
      "lumber": 6915,
      "judged": 6916,
      "balance": 6917,
      "brook": 6918,
      "Forel": 6919,
      "squirrel": 6920,
      "spilling": 6921,
      "japes": 6922,
      "Nym": 6923,
      "clamber": 6924,
      "splintered": 6925,
      "shimmered": 6926,
      "ticular": 6927,
      "wizard": 6928,
      "scorp": 6929,
      "firmly": 6930,
      "scrambled": 6931,
      "Words": 6932,
      "chicken": 6933,
      "Therms": 6934,
      "refuge": 6935,
      "Brusco": 6936,
      "valiant": 6937,
      "sacrifice": 6938,
      "Strickland": 6939,
      "Florian": 6940,
      "Jaremy": 6941,
      ".,": 6942,
      "55": 6943,
      "DE": 6944,
      "Rag": 6945,
      "VAN": 6946,
      "aid": 6947,
      "bles": 6948,
      "embers": 6949,
      "fid": 6950,
      "furn": 6951,
      "ffing": 6952,
      "fountain": 6953,
      "gasp": 6954,
      "lists": 6955,
      "pall": 6956,
      "var": 6957,
      "vir": 6958,
      "informed": 6959,
      "release": 6960,
      "arled": 6961,
      "ofter": 6962,
      "meek": 6963,
      "rog": 6964,
      "hips": 6965,
      "herds": 6966,
      "lifting": 6967,
      "agga": 6968,
      "aggers": 6969,
      "weed": 6970,
      "sheet": 6971,
      "hospit": 6972,
      "outriders": 6973,
      "deft": 6974,
      "quo": 6975,
      "boiling": 6976,
      "bodice": 6977,
      "mused": 6978,
      "plent": 6979,
      "early": 6980,
      "greasy": 6981,
      "downstream": 6982,
      "slap": 6983,
      "cally": 6984,
      "warhorn": 6985,
      "warhorns": 6986,
      "hunched": 6987,
      "needle": 6988,
      "clapped": 6989,
      "prov": 6990,
      "bedded": 6991,
      "silken": 6992,
      "sweep": 6993,
      "letting": 6994,
      "Home": 6995,
      "speed": 6996,
      "spells": 6997,
      "merc": 6998,
      "courser": 6999,
      "choking": 7000,
      "surrend": 7001,
      "satis": 7002,
      "gazing": 7003,
      "shoving": 7004,
      "shores": 7005,
      "answers": 7006,
      "throats": 7007,
      "hugged": 7008,
      "compre": 7009,
      "kissing": 7010,
      "boomed": 7011,
      "elsewise": 7012,
      "gnarled": 7013,
      "badge": 7014,
      "floors": 7015,
      "confusion": 7016,
      "pretti": 7017,
      "temples": 7018,
      "Smith": 7019,
      "eighteen": 7020,
      "midnight": 7021,
      "Yollo": 7022,
      "glimmered": 7023,
      "Thoren": 7024,
      "Below": 7025,
      "meeting": 7026,
      "terrified": 7027,
      "pork": 7028,
      "companies": 7029,
      "maidens": 7030,
      "apartments": 7031,
      "Women": 7032,
      "Almost": 7033,
      "Sweetling": 7034,
      "balcon": 7035,
      "hence": 7036,
      "shriek": 7037,
      "Pia": 7038,
      "Frost": 7039,
      "ificent": 7040,
      "searched": 7041,
      "baseborn": 7042,
      "jugg": 7043,
      "gruff": 7044,
      "Rhoyn": 7045,
      "QUEEN": 7046,
      "greeted": 7047,
      "rubies": 7048,
      "joust": 7049,
      "rattled": 7050,
      "objected": 7051,
      "BARA": 7052,
      "ninety": 7053,
      "sprouted": 7054,
      "shuffled": 7055,
      "future": 7056,
      "gelding": 7057,
      "nipple": 7058,
      "allegiance": 7059,
      "Ab": 7060,
      "BA": 7061,
      "EM": 7062,
      "Eight": 7063,
      "GA": 7064,
      "Much": 7065,
      "Roo": 7066,
      "Spo": 7067,
      "Stor": 7068,
      "Twenty": 7069,
      "Une": 7070,
      "Wine": 7071,
      "WIN": 7072,
      "bard": 7073,
      "baked": 7074,
      "chat": 7075,
      "clinging": 7076,
      "daggers": 7077,
      "fray": 7078,
      "garm": 7079,
      "gash": 7080,
      "hra": 7081,
      "jet": 7082,
      "lm": 7083,
      "lacked": 7084,
      "oaf": 7085,
      "slaught": 7086,
      "tat": 7087,
      "vors": 7088,
      "hears": 7089,
      "inx": 7090,
      "stab": 7091,
      "level": 7092,
      "roman": 7093,
      "withered": 7094,
      "acce": 7095,
      "liken": 7096,
      "unseen": 7097,
      "uncomfortably": 7098,
      "vern": 7099,
      "forming": 7100,
      "weeds": 7101,
      "ceed": 7102,
      "hovels": 7103,
      "coals": 7104,
      "entrance": 7105,
      "aker": 7106,
      "spire": 7107,
      "ift": 7108,
      "wayn": 7109,
      "mummers": 7110,
      "tire": 7111,
      "absence": 7112,
      "Stal": 7113,
      "scur": 7114,
      "longaxe": 7115,
      "thrones": 7116,
      "shouldered": 7117,
      "afoot": 7118,
      "perished": 7119,
      "anges": 7120,
      "flashing": 7121,
      "underfoot": 7122,
      "watery": 7123,
      "excit": 7124,
      "carts": 7125,
      "Thousand": 7126,
      "counter": 7127,
      "cellars": 7128,
      "snap": 7129,
      "whistled": 7130,
      "denied": 7131,
      "deaths": 7132,
      "barracks": 7133,
      "heavier": 7134,
      "Leathers": 7135,
      "STONE": 7136,
      "Bywater": 7137,
      "paint": 7138,
      "triarch": 7139,
      "gallop": 7140,
      "sailor": 7141,
      "rainbow": 7142,
      "pyre": 7143,
      "Walda": 7144,
      "threats": 7145,
      "feasts": 7146,
      "tempted": 7147,
      "sandals": 7148,
      "streamed": 7149,
      "draft": 7150,
      "glimmer": 7151,
      "healing": 7152,
      "starting": 7153,
      "knocking": 7154,
      "palan": 7155,
      "Betha": 7156,
      "slippers": 7157,
      "suspicion": 7158,
      "faithful": 7159,
      "crab": 7160,
      "vaults": 7161,
      "requires": 7162,
      "rabbit": 7163,
      "swayed": 7164,
      "gleamed": 7165,
      "rippling": 7166,
      "inclu": 7167,
      "Beside": 7168,
      "holdfasts": 7169,
      "enjoyed": 7170,
      "uncertainly": 7171,
      "Hugor": 7172,
      "curtains": 7173,
      "concealed": 7174,
      "reported": 7175,
      "clansmen": 7176,
      "Burned": 7177,
      "noisily": 7178,
      "Barrowton": 7179,
      "Raymun": 7180,
      "ivory": 7181,
      "entirely": 7182,
      "Stepstones": 7183,
      "position": 7184,
      "impatient": 7185,
      "locust": 7186,
      "STARK": 7187,
      "probably": 7188,
      "unawares": 7189,
      "hrazz": 7190,
      "tattoo": 7191,
      "Faces": 7192,
      "GU": 7193,
      "Hally": 7194,
      "Id": 7195,
      "Khrazz": 7196,
      "Lion": 7197,
      "Nar": 7198,
      "Pax": 7199,
      "Sail": 7200,
      "Wid": 7201,
      "ae": 7202,
      "bul": 7203,
      "dung": 7204,
      "dging": 7205,
      "hul": 7206,
      "pite": 7207,
      "ske": 7208,
      "ware": 7209,
      "inches": 7210,
      "recent": 7211,
      "replaced": 7212,
      "resumed": 7213,
      "reign": 7214,
      "ision": 7215,
      "stuck": 7216,
      "mess": 7217,
      "behold": 7218,
      "hired": 7219,
      "accent": 7220,
      "nolf": 7221,
      "ripping": 7222,
      "unhor": 7223,
      "weigh": 7224,
      "comed": 7225,
      "moist": 7226,
      "blink": 7227,
      "mane": 7228,
      "rails": 7229,
      "decre": 7230,
      "deeds": 7231,
      "aks": 7232,
      "rubbing": 7233,
      "anymore": 7234,
      "Robar": 7235,
      "Jonos": 7236,
      "poles": 7237,
      "rentice": 7238,
      "ggard": 7239,
      "hunted": 7240,
      "flint": 7241,
      "penn": 7242,
      "clan": 7243,
      "clang": 7244,
      "breed": 7245,
      "aching": 7246,
      "cape": 7247,
      "Holly": 7248,
      "track": 7249,
      "dripped": 7250,
      "Mollen": 7251,
      "Arnolf": 7252,
      "swam": 7253,
      "mission": 7254,
      "throbbing": 7255,
      "biting": 7256,
      "cipl": 7257,
      "freely": 7258,
      "welcomed": 7259,
      "temper": 7260,
      "slaying": 7261,
      "mistaken": 7262,
      "joining": 7263,
      "ELYN": 7264,
      "bellies": 7265,
      "Greenbeard": 7266,
      "Steff": 7267,
      "brig": 7268,
      "catap": 7269,
      "embrace": 7270,
      "savages": 7271,
      "pige": 7272,
      "Lysene": 7273,
      "assembled": 7274,
      "Ryk": 7275,
      "judgment": 7276,
      "flicked": 7277,
      "dancer": 7278,
      "featherbed": 7279,
      "failing": 7280,
      "squirmed": 7281,
      "lazy": 7282,
      "spirits": 7283,
      "treachery": 7284,
      "argued": 7285,
      "survived": 7286,
      "gaped": 7287,
      "boasted": 7288,
      "juice": 7289,
      "jeweled": 7290,
      "chasing": 7291,
      "thief": 7292,
      "stool": 7293,
      "generous": 7294,
      "hawk": 7295,
      "briefly": 7296,
      "nesses": 7297,
      "tankard": 7298,
      "choosing": 7299,
      "skinchanger": 7300,
      "pommel": 7301,
      "Frostfangs": 7302,
      "Hallyne": 7303,
      "Paxter": 7304,
      "Chat": 7305,
      "Cour": 7306,
      "Close": 7307,
      "CAT": 7308,
      "JAI": 7309,
      "Olen": 7310,
      "REN": 7311,
      "Sisters": 7312,
      "Wra": 7313,
      "YO": 7314,
      "Ysill": 7315,
      "ibly": 7316,
      "lac": 7317,
      "lain": 7318,
      "laces": 7319,
      "lashed": 7320,
      "mix": 7321,
      "oiled": 7322,
      "pad": 7323,
      "pred": 7324,
      "rattle": 7325,
      "tumbling": 7326,
      "vy": 7327,
      "vain": 7328,
      "heh": 7329,
      "onds": 7330,
      "rek": 7331,
      "reck": 7332,
      "retain": 7333,
      "replace": 7334,
      "eng": 7335,
      "enes": 7336,
      "stance": 7337,
      "stane": 7338,
      "staggering": 7339,
      "veil": 7340,
      "irons": 7341,
      "lim": 7342,
      "unned": 7343,
      "necess": 7344,
      "fork": 7345,
      "homes": 7346,
      "blisters": 7347,
      "antlers": 7348,
      "ifully": 7349,
      "boil": 7350,
      "bobbed": 7351,
      "foster": 7352,
      "offers": 7353,
      "plac": 7354,
      "plague": 7355,
      "Stafford": 7356,
      "anywhere": 7357,
      "berries": 7358,
      "ulls": 7359,
      "canvas": 7360,
      "cheap": 7361,
      "grac": 7362,
      "horri": 7363,
      "slam": 7364,
      "warg": 7365,
      "steam": 7366,
      "steaming": 7367,
      "hairs": 7368,
      "hairy": 7369,
      "trest": 7370,
      "sentries": 7371,
      "disgu": 7372,
      "discipl": 7373,
      "counting": 7374,
      "farce": 7375,
      "Bottom": 7376,
      "cupped": 7377,
      "shoes": 7378,
      "starving": 7379,
      "slipping": 7380,
      "freeze": 7381,
      "thicker": 7382,
      "parap": 7383,
      "crusted": 7384,
      "Willow": 7385,
      "cares": 7386,
      "retching": 7387,
      "Point": 7388,
      "Dragonknight": 7389,
      "leader": 7390,
      "strewn": 7391,
      "weakness": 7392,
      "councill": 7393,
      "tunnels": 7394,
      "roofs": 7395,
      "wisps": 7396,
      "scrape": 7397,
      "ttled": 7398,
      "fucked": 7399,
      "pledged": 7400,
      "threaten": 7401,
      "MOND": 7402,
      "oaths": 7403,
      "punched": 7404,
      "private": 7405,
      "formerly": 7406,
      "kneeling": 7407,
      "treasures": 7408,
      "leeches": 7409,
      "Hardhome": 7410,
      "survivors": 7411,
      "splinters": 7412,
      "eagerly": 7413,
      "Trystane": 7414,
      "fancy": 7415,
      "awkwardly": 7416,
      "powder": 7417,
      "glittered": 7418,
      "regarded": 7419,
      "hauber": 7420,
      "utterly": 7421,
      "dwindled": 7422,
      "rescue": 7423,
      "subject": 7424,
      "corrected": 7425,
      "brutal": 7426,
      "blazoned": 7427,
      "magnificent": 7428,
      "ramparts": 7429,
      "papers": 7430,
      "Spotted": 7431,
      "Unella": 7432,
      "accepted": 7433,
      "Chataya": 7434,
      "JAIME": 7435,
      "Olenna": 7436,
      "Ysilla": 7437,
      "22": 7438,
      "57": 7439,
      "Aur": 7440,
      "Age": 7441,
      "BU": 7442,
      "Bridge": 7443,
      "Cut": 7444,
      "Ex": 7445,
      "Lhaz": 7446,
      "Pale": 7447,
      "Sleep": 7448,
      "Vance": 7449,
      "Xhon": 7450,
      "bould": 7451,
      "ckets": 7452,
      "eats": 7453,
      "fumbled": 7454,
      "jar": 7455,
      "lend": 7456,
      "lung": 7457,
      "mound": 7458,
      "mace": 7459,
      "oar": 7460,
      "olives": 7461,
      "pail": 7462,
      "paced": 7463,
      "rut": 7464,
      "silly": 7465,
      "ult": 7466,
      "xos": 7467,
      "yra": 7468,
      "ancing": 7469,
      "hack": 7470,
      "habit": 7471,
      "ands": 7472,
      "llard": 7473,
      "arrog": 7474,
      "separ": 7475,
      "formid": 7476,
      "kest": 7477,
      "Hear": 7478,
      "molt": 7479,
      "entrails": 7480,
      "loss": 7481,
      "doll": 7482,
      "rules": 7483,
      "wayns": 7484,
      "kingdoms": 7485,
      "brows": 7486,
      "scoo": 7487,
      "scrubbed": 7488,
      "chewing": 7489,
      "afar": 7490,
      "shifting": 7491,
      "clatter": 7492,
      "provided": 7493,
      "queens": 7494,
      "ighed": 7495,
      "Daxos": 7496,
      "explain": 7497,
      "exchange": 7498,
      "spell": 7499,
      "discovered": 7500,
      "remn": 7501,
      "Moll": 7502,
      "fearless": 7503,
      "sunk": 7504,
      "Around": 7505,
      "desol": 7506,
      "crossroads": 7507,
      "certainly": 7508,
      "risen": 7509,
      "Goat": 7510,
      "hushed": 7511,
      "slice": 7512,
      "particular": 7513,
      "growl": 7514,
      "elsewhere": 7515,
      "homely": 7516,
      "sensed": 7517,
      "imple": 7518,
      "trapped": 7519,
      "trailed": 7520,
      "trailing": 7521,
      "causeway": 7522,
      "splashing": 7523,
      "headsman": 7524,
      "saddled": 7525,
      "burden": 7526,
      "reeds": 7527,
      "onyx": 7528,
      "narrowed": 7529,
      "grandson": 7530,
      "eighty": 7531,
      "quarrels": 7532,
      "pinned": 7533,
      "defenders": 7534,
      "Brotherhood": 7535,
      "chairs": 7536,
      "Volantene": 7537,
      "Wolves": 7538,
      "emerge": 7539,
      "Ship": 7540,
      "scraped": 7541,
      "wrath": 7542,
      "kitten": 7543,
      "palace": 7544,
      "Karstarks": 7545,
      "Spider": 7546,
      "Valar": 7547,
      "EDD": 7548,
      "Halder": 7549,
      "Waymar": 7550,
      "shrieking": 7551,
      "Farther": 7552,
      "circling": 7553,
      "Guard": 7554,
      "clams": 7555,
      "mockery": 7556,
      "suffice": 7557,
      "Build": 7558,
      "Bugger": 7559,
      "fortune": 7560,
      "dangling": 7561,
      "thirsty": 7562,
      "monger": 7563,
      "pelt": 7564,
      "seventy": 7565,
      "Holdfast": 7566,
      "driftwood": 7567,
      "reluctantly": 7568,
      "Patrek": 7569,
      "Milkwater": 7570,
      "Wylis": 7571,
      "Hundreds": 7572,
      "Gulltown": 7573,
      "goblet": 7574,
      "hinges": 7575,
      "BARATHEON": 7576,
      "Aurane": 7577,
      "Xhondo": 7578,
      "molten": 7579,
      ".'": 7580,
      "Cl": 7581,
      "Dri": 7582,
      "DEN": 7583,
      "HAL": 7584,
      "Ill": 7585,
      "LYN": 7586,
      "Oath": 7587,
      "South": 7588,
      "SAN": 7589,
      "Tre": 7590,
      "Tow": 7591,
      "await": 7592,
      "fits": 7593,
      "ial": 7594,
      "khaleesi": 7595,
      "lorn": 7596,
      "palf": 7597,
      "rained": 7598,
      "wan": 7599,
      "wave": 7600,
      "hemp": 7601,
      "ining": 7602,
      "itude": 7603,
      "sapp": 7604,
      "adhan": 7605,
      "ager": 7606,
      "aging": 7607,
      "wears": 7608,
      "weighed": 7609,
      "coz": 7610,
      "coal": 7611,
      "blast": 7612,
      "blings": 7613,
      "spices": 7614,
      "anted": 7615,
      "mus": 7616,
      "mulled": 7617,
      "timid": 7618,
      "idea": 7619,
      "somewhat": 7620,
      "Stand": 7621,
      "berry": 7622,
      "scrolls": 7623,
      "winning": 7624,
      "turncloak": 7625,
      "dign": 7626,
      "watered": 7627,
      "chel": 7628,
      "vol": 7629,
      "Weep": 7630,
      "slate": 7631,
      "guess": 7632,
      "guilt": 7633,
      "conte": 7634,
      "flour": 7635,
      "procession": 7636,
      "deadly": 7637,
      "swears": 7638,
      "dragging": 7639,
      "waving": 7640,
      "stores": 7641,
      "glare": 7642,
      "Whit": 7643,
      "Think": 7644,
      "garbed": 7645,
      "choke": 7646,
      "THOR": 7647,
      "intended": 7648,
      "Quick": 7649,
      "mismatched": 7650,
      "shops": 7651,
      "puzzled": 7652,
      "awned": 7653,
      "belief": 7654,
      "mattered": 7655,
      "Willem": 7656,
      "tricks": 7657,
      "triump": 7658,
      "raining": 7659,
      "Def": 7660,
      "Myranda": 7661,
      "septas": 7662,
      "borne": 7663,
      "feasted": 7664,
      "Lump": 7665,
      "froze": 7666,
      "defense": 7667,
      "heirs": 7668,
      "obsc": 7669,
      "Victory": 7670,
      "RICK": 7671,
      "rumbling": 7672,
      "MALL": 7673,
      "pinch": 7674,
      "strapped": 7675,
      "entertain": 7676,
      "builders": 7677,
      "emerald": 7678,
      "witch": 7679,
      "oarsmen": 7680,
      "Strongboar": 7681,
      "coppers": 7682,
      "Spare": 7683,
      "suitable": 7684,
      "Kettleblacks": 7685,
      "brooding": 7686,
      "WALDA": 7687,
      "Skahazadhan": 7688,
      "dusky": 7689,
      "pups": 7690,
      "muscles": 7691,
      "wriggled": 7692,
      "gaolers": 7693,
      "trans": 7694,
      "BRAN": 7695,
      "nineteen": 7696,
      "prophecy": 7697,
      "Xhoan": 7698,
      "trumpets": 7699,
      "apologi": 7700,
      "darted": 7701,
      "Bitterbridge": 7702,
      "gargoyles": 7703,
      "ashamed": 7704,
      "reasons": 7705,
      "enameled": 7706,
      "acolytes": 7707,
      "dizzy": 7708,
      "TYRELL": 7709,
      "merchants": 7710,
      "hospitality": 7711,
      "Rhoynar": 7712,
      "likeness": 7713,
      "Stalwart": 7714,
      "decreed": 7715,
      "formidable": 7716,
      "remnants": 7717,
      "palfrey": 7718,
      "\"-": 7719,
      "14": 7720,
      "33": 7721,
      "Cell": 7722,
      "Dis": 7723,
      "DAN": 7724,
      "Doub": 7725,
      "EU": 7726,
      "Elin": 7727,
      "FOR": 7728,
      "IA": 7729,
      "Ken": 7730,
      "List": 7731,
      "Pree": 7732,
      "Que": 7733,
      "Sack": 7734,
      "Salla": 7735,
      "TOR": 7736,
      "boun": 7737,
      "cies": 7738,
      "calf": 7739,
      "camped": 7740,
      "dled": 7741,
      "fac": 7742,
      "fra": 7743,
      "frey": 7744,
      "fried": 7745,
      "io": 7746,
      "khas": 7747,
      "oven": 7748,
      "olive": 7749,
      "praise": 7750,
      "pouch": 7751,
      "sid": 7752,
      "shave": 7753,
      "uu": 7754,
      "angu": 7755,
      "intru": 7756,
      "inlaid": 7757,
      "resent": 7758,
      "reced": 7759,
      "hammers": 7760,
      "asc": 7761,
      "assau": 7762,
      "llet": 7763,
      "stinking": 7764,
      "stretch": 7765,
      "sable": 7766,
      "irling": 7767,
      "alp": 7768,
      "sob": 7769,
      "moaned": 7770,
      "amber": 7771,
      "ains": 7772,
      "spittle": 7773,
      "bot": 7774,
      "Lordsport": 7775,
      "tile": 7776,
      "ourselves": 7777,
      "offense": 7778,
      "handmaid": 7779,
      "plow": 7780,
      "suspect": 7781,
      "Stout": 7782,
      "brittle": 7783,
      "ornament": 7784,
      "scalp": 7785,
      "arming": 7786,
      "headlong": 7787,
      "longhall": 7788,
      "siblings": 7789,
      "aurochs": 7790,
      "slashing": 7791,
      "ical": 7792,
      "warships": 7793,
      "warlocks": 7794,
      "ggs": 7795,
      "horselords": 7796,
      "flared": 7797,
      "fingered": 7798,
      "cramped": 7799,
      "chaos": 7800,
      "runken": 7801,
      "hardened": 7802,
      "mayhaps": 7803,
      "openly": 7804,
      "bush": 7805,
      "displeased": 7806,
      "yelled": 7807,
      "counts": 7808,
      "settling": 7809,
      "Megga": 7810,
      "ANT": 7811,
      "snowy": 7812,
      "swyck": 7813,
      "bringer": 7814,
      "warmed": 7815,
      "Lands": 7816,
      "Lemon": 7817,
      "vanish": 7818,
      "pleasantly": 7819,
      "believes": 7820,
      "Sevenstrings": 7821,
      "touching": 7822,
      "nearby": 7823,
      "Walders": 7824,
      "visitors": 7825,
      "gorget": 7826,
      "confir": 7827,
      "droo": 7828,
      "bruises": 7829,
      "Penrose": 7830,
      "Everything": 7831,
      "barely": 7832,
      "griff": 7833,
      "Mayhaps": 7834,
      "patted": 7835,
      "Rayn": 7836,
      "Skirling": 7837,
      "games": 7838,
      "sticks": 7839,
      "lovers": 7840,
      "oaks": 7841,
      "furious": 7842,
      "weirwoods": 7843,
      "stubble": 7844,
      "weathered": 7845,
      "tradition": 7846,
      "busy": 7847,
      "travelers": 7848,
      "trotting": 7849,
      "smiths": 7850,
      "agreement": 7851,
      "bags": 7852,
      "sausages": 7853,
      "gleaming": 7854,
      "picking": 7855,
      "anxiously": 7856,
      "spurs": 7857,
      "granite": 7858,
      "Dancer": 7859,
      "perilous": 7860,
      "Urswyck": 7861,
      "seventeen": 7862,
      "Finger": 7863,
      "glistening": 7864,
      "politely": 7865,
      "vulner": 7866,
      "accompl": 7867,
      "Heroes": 7868,
      "noose": 7869,
      "provide": 7870,
      "palanquin": 7871,
      "Elinor": 7872,
      "assault": 7873,
      "58": 7874,
      "59": 7875,
      "Bone": 7876,
      "Buck": 7877,
      "Bank": 7878,
      "BAL": 7879,
      "Ced": 7880,
      "Cinnamon": 7881,
      "Day": 7882,
      "During": 7883,
      "Fish": 7884,
      "Fury": 7885,
      "GY": 7886,
      "GREY": 7887,
      "Gift": 7888,
      "Im": 7889,
      "Luck": 7890,
      "NY": 7891,
      "Nute": 7892,
      "Ric": 7893,
      "Rav": 7894,
      "RHA": 7895,
      "Smo": 7896,
      "SHA": 7897,
      "TI": 7898,
      "WI": 7899,
      "aa": 7900,
      "avenge": 7901,
      "battered": 7902,
      "crested": 7903,
      "drenched": 7904,
      "fab": 7905,
      "groom": 7906,
      "lon": 7907,
      "lid": 7908,
      "lashing": 7909,
      "pus": 7910,
      "pause": 7911,
      "sink": 7912,
      "sacked": 7913,
      "sinking": 7914,
      "tapped": 7915,
      "vague": 7916,
      "yl": 7917,
      "hend": 7918,
      "anchor": 7919,
      "ination": 7920,
      "insult": 7921,
      "toshi": 7922,
      "thumped": 7923,
      "sey": 7924,
      "seats": 7925,
      "ordin": 7926,
      "liking": 7927,
      "weasel": 7928,
      "altar": 7929,
      "urgent": 7930,
      "Hel": 7931,
      "chances": 7932,
      "ambit": 7933,
      "amere": 7934,
      "blank": 7935,
      "log": 7936,
      "aste": 7937,
      "ility": 7938,
      "shows": 7939,
      "gots": 7940,
      "dome": 7941,
      "rumm": 7942,
      "ified": 7943,
      "bolts": 7944,
      "apt": 7945,
      "tico": 7946,
      "amethy": 7947,
      "cloves": 7948,
      "forearm": 7949,
      "longbow": 7950,
      "longswords": 7951,
      "poking": 7952,
      "bloodrider": 7953,
      "blacks": 7954,
      "warhammer": 7955,
      "flash": 7956,
      "ults": 7957,
      "knighted": 7958,
      "mostly": 7959,
      "sweeping": 7960,
      "ignore": 7961,
      "capable": 7962,
      "guarding": 7963,
      "commanders": 7964,
      "lasted": 7965,
      "buckled": 7966,
      "dismount": 7967,
      "dismissed": 7968,
      "fights": 7969,
      "ctly": 7970,
      "Read": 7971,
      "friendship": 7972,
      "swordsman": 7973,
      "clawed": 7974,
      "elle": 7975,
      "feels": 7976,
      "Today": 7977,
      "Tollet": 7978,
      "bites": 7979,
      "Mors": 7980,
      "frequ": 7981,
      "STE": 7982,
      "Orton": 7983,
      "hurts": 7984,
      "hurting": 7985,
      "impris": 7986,
      "ALYN": 7987,
      "crowns": 7988,
      "fters": 7989,
      "shadowcat": 7990,
      "pretended": 7991,
      "Norvos": 7992,
      "nonetheless": 7993,
      "Pentoshi": 7994,
      "mutter": 7995,
      "obald": 7996,
      "sickness": 7997,
      "bravely": 7998,
      "consort": 7999
    },
    "merges": [
      [
        "h",
        "e"
      ],
      [
        "t",
        "he"
      ],
      [
        "a",
        "n"
      ],
      [
        "i",
        "n"
      ],
      [
        "e",
        "r"
      ],
      [
        "e",
        "d"
      ],
      [
        "o",
        "u"
      ],
      [
        "o",
        "n"
      ],
      [
        "r",
        "e"
      ],
      [
        "h",
        "a"
      ],
      [
        "an",
        "d"
      ],
      [
        "i",
        "s"
      ],
      [
        "t",
        "o"
      ],
      [
        "e",
        "n"
      ],
      [
        "a",
        "s"
      ],
      [
        "o",
        "r"
      ],
      [
        "l",
        "l"
      ],
      [
        "t",
        "h"
      ],
      [
        "a",
        "r"
      ],
      [
        "in",
        "g"
      ],
      [
        "o",
        "f"
      ],
      [
        "s",
        "t"
      ],
      [
        "l",
        "e"
      ],
      [
        "l",
        "d"
      ],
      [
        "o",
        "w"
      ],
      [
        "m",
        "e"
      ],
      [
        "a",
        "t"
      ],
      [
        "s",
        "e"
      ],
      [
        "b",
        "e"
      ],
      [
        "i",
        "t"
      ],
      [
        "g",
        "h"
      ],
      [
        "h",
        "is"
      ],
      [
        "i",
        "d"
      ],
      [
        "r",
        "o"
      ],
      [
        "y",
        "ou"
      ],
      [
        "h",
        "i"
      ],
      [
        "w",
        "as"
      ],
      [
        "w",
        "i"
      ],
      [
        "v",
        "e"
      ],
      [
        "T",
        "he"
      ],
      [
        "ha",
        "t"
      ],
      [
        "a",
        "c"
      ],
      [
        "n",
        "o"
      ],
      [
        "he",
        "r"
      ],
      [
        "s",
        "a"
      ],
      [
        "gh",
        "t"
      ],
      [
        "e",
        "s"
      ],
      [
        "ha",
        "d"
      ],
      [
        "a",
        "d"
      ],
      [
        "o",
        "o"
      ],
      [
        "r",
        "i"
      ],
      [
        "a",
        "ll"
      ],
      [
        "i",
        "r"
      ],
      [
        "l",
        "y"
      ],
      [
        "u",
        "t"
      ],
      [
        "ou",
        "ld"
      ],
      [
        "t",
        "hat"
      ],
      [
        "a",
        "y"
      ],
      [
        ".",
        "\""
      ],
      [
        "or",
        "d"
      ],
      [
        "hi",
        "m"
      ],
      [
        "the",
        "r"
      ],
      [
        "l",
        "i"
      ],
      [
        "u",
        "n"
      ],
      [
        "v",
        "er"
      ],
      [
        "wi",
        "th"
      ],
      [
        "n",
        "e"
      ],
      [
        "f",
        "or"
      ],
      [
        "t",
        "er"
      ],
      [
        "a",
        "g"
      ],
      [
        "w",
        "e"
      ],
      [
        "on",
        "e"
      ],
      [
        "no",
        "t"
      ],
      [
        "c",
        "e"
      ],
      [
        "k",
        "e"
      ],
      [
        "s",
        "he"
      ],
      [
        "a",
        "l"
      ],
      [
        "s",
        "o"
      ],
      [
        "h",
        "o"
      ],
      [
        "u",
        "r"
      ],
      [
        ".",
        "”"
      ],
      [
        "b",
        "ut"
      ],
      [
        "H",
        "e"
      ],
      [
        "c",
        "o"
      ],
      [
        "f",
        "e"
      ],
      [
        "m",
        "o"
      ],
      [
        "c",
        "h"
      ],
      [
        "n",
        "d"
      ],
      [
        "i",
        "ght"
      ],
      [
        "a",
        "m"
      ],
      [
        "ac",
        "k"
      ],
      [
        "en",
        "t"
      ],
      [
        "b",
        "l"
      ],
      [
        "a",
        "in"
      ],
      [
        "sa",
        "id"
      ],
      [
        "m",
        "an"
      ],
      [
        "w",
        "er"
      ],
      [
        "ar",
        "d"
      ],
      [
        "ow",
        "n"
      ],
      [
        "ha",
        "ve"
      ],
      [
        "l",
        "o"
      ],
      [
        "c",
        "k"
      ],
      [
        "ou",
        "t"
      ],
      [
        "the",
        "m"
      ],
      [
        "ro",
        "m"
      ],
      [
        "as",
        "t"
      ],
      [
        "e",
        "t"
      ],
      [
        "m",
        "y"
      ],
      [
        "i",
        "l"
      ],
      [
        "oo",
        "d"
      ],
      [
        "s",
        "h"
      ],
      [
        "u",
        "p"
      ],
      [
        "g",
        "o"
      ],
      [
        ",",
        "\""
      ],
      [
        "d",
        "o"
      ],
      [
        "r",
        "a"
      ],
      [
        "d",
        "e"
      ],
      [
        "on",
        "g"
      ],
      [
        "f",
        "rom"
      ],
      [
        "w",
        "he"
      ],
      [
        "w",
        "ould"
      ],
      [
        "wer",
        "e"
      ],
      [
        "the",
        "y"
      ],
      [
        "a",
        "re"
      ],
      [
        "n",
        "ow"
      ],
      [
        "i",
        "ll"
      ],
      [
        "Y",
        "ou"
      ],
      [
        "a",
        "k"
      ],
      [
        "w",
        "o"
      ],
      [
        "er",
        "s"
      ],
      [
        "q",
        "u"
      ],
      [
        "r",
        "y"
      ],
      [
        "s",
        "p"
      ],
      [
        "r",
        "u"
      ],
      [
        "an",
        "t"
      ],
      [
        "wi",
        "ll"
      ],
      [
        "ou",
        "nd"
      ],
      [
        "i",
        "f"
      ],
      [
        "e",
        "p"
      ],
      [
        "s",
        "s"
      ],
      [
        "ou",
        "gh"
      ],
      [
        "l",
        "f"
      ],
      [
        "in",
        "d"
      ],
      [
        "m",
        "en"
      ],
      [
        "to",
        "o"
      ],
      [
        "b",
        "o"
      ],
      [
        "v",
        "en"
      ],
      [
        "you",
        "r"
      ],
      [
        "ac",
        "e"
      ],
      [
        "L",
        "ord"
      ],
      [
        "w",
        "ay"
      ],
      [
        "S",
        "he"
      ],
      [
        "the",
        "ir"
      ],
      [
        "c",
        "ould"
      ],
      [
        "m",
        "u"
      ],
      [
        "f",
        "o"
      ],
      [
        "S",
        "er"
      ],
      [
        "he",
        "d"
      ],
      [
        "a",
        "p"
      ],
      [
        "t",
        "i"
      ],
      [
        "a",
        "b"
      ],
      [
        "id",
        "e"
      ],
      [
        "k",
        "ed"
      ],
      [
        "t",
        "e"
      ],
      [
        "e",
        "l"
      ],
      [
        "t",
        "ed"
      ],
      [
        "?",
        "\""
      ],
      [
        "ou",
        "r"
      ],
      [
        "k",
        "ing"
      ],
      [
        "g",
        "e"
      ],
      [
        "ur",
        "n"
      ],
      [
        "se",
        "e"
      ],
      [
        "en",
        "d"
      ],
      [
        "w",
        "ord"
      ],
      [
        "u",
        "s"
      ],
      [
        "l",
        "a"
      ],
      [
        "of",
        "f"
      ],
      [
        "be",
        "en"
      ],
      [
        "I",
        "t"
      ],
      [
        "whe",
        "n"
      ],
      [
        "h",
        "and"
      ],
      [
        ",",
        "”"
      ],
      [
        "T",
        "y"
      ],
      [
        "a",
        "ther"
      ],
      [
        "w",
        "ho"
      ],
      [
        "d",
        "id"
      ],
      [
        "b",
        "ack"
      ],
      [
        "t",
        "le"
      ],
      [
        ".",
        "."
      ],
      [
        "p",
        "l"
      ],
      [
        "s",
        "u"
      ],
      [
        "ou",
        "ght"
      ],
      [
        "b",
        "ro"
      ],
      [
        "l",
        "oo"
      ],
      [
        "o",
        "ther"
      ],
      [
        "n",
        "ight"
      ],
      [
        "so",
        "me"
      ],
      [
        "e",
        "st"
      ],
      [
        "b",
        "y"
      ],
      [
        "e",
        "ar"
      ],
      [
        "a",
        "ke"
      ],
      [
        "e",
        "y"
      ],
      [
        "r",
        "an"
      ],
      [
        "g",
        "re"
      ],
      [
        "a",
        "me"
      ],
      [
        "th",
        "an"
      ],
      [
        "S",
        "t"
      ],
      [
        "mo",
        "re"
      ],
      [
        "r",
        "ed"
      ],
      [
        "an",
        "n"
      ],
      [
        "p",
        "ed"
      ],
      [
        "on",
        "s"
      ],
      [
        "ag",
        "e"
      ],
      [
        "m",
        "m"
      ],
      [
        "d",
        "own"
      ],
      [
        "an",
        "y"
      ],
      [
        "we",
        "ll"
      ],
      [
        "li",
        "ke"
      ],
      [
        "l",
        "ord"
      ],
      [
        "th",
        "ing"
      ],
      [
        "c",
        "lo"
      ],
      [
        "at",
        "e"
      ],
      [
        "b",
        "r"
      ],
      [
        "m",
        "p"
      ],
      [
        "th",
        "is"
      ],
      [
        "d",
        "er"
      ],
      [
        "e",
        "ver"
      ],
      [
        "ad",
        "e"
      ],
      [
        "re",
        "e"
      ],
      [
        "or",
        "n"
      ],
      [
        "b",
        "er"
      ],
      [
        "R",
        "o"
      ],
      [
        "s",
        "c"
      ],
      [
        "ar",
        "k"
      ],
      [
        "fo",
        "re"
      ],
      [
        "s",
        "ha"
      ],
      [
        "ou",
        "s"
      ],
      [
        "r",
        "ow"
      ],
      [
        "ar",
        "m"
      ],
      [
        "?",
        "”"
      ],
      [
        "s",
        "m"
      ],
      [
        "ti",
        "me"
      ],
      [
        "J",
        "on"
      ],
      [
        "l",
        "ed"
      ],
      [
        "he",
        "ad"
      ],
      [
        "a",
        "ve"
      ],
      [
        "l",
        "ong"
      ],
      [
        "N",
        "o"
      ],
      [
        "w",
        "in"
      ],
      [
        "A",
        "nd"
      ],
      [
        "k",
        "now"
      ],
      [
        "se",
        "lf"
      ],
      [
        "f",
        "i"
      ],
      [
        "p",
        "o"
      ],
      [
        "the",
        "re"
      ],
      [
        "t",
        "urn"
      ],
      [
        "y",
        "s"
      ],
      [
        "a",
        "th"
      ],
      [
        "ag",
        "ain"
      ],
      [
        "v",
        "ed"
      ],
      [
        "p",
        "e"
      ],
      [
        "s",
        "ide"
      ],
      [
        "t",
        "s"
      ],
      [
        "o",
        "ld"
      ],
      [
        "The",
        "y"
      ],
      [
        "d",
        "i"
      ],
      [
        "w",
        "at"
      ],
      [
        "w",
        "hat"
      ],
      [
        "is",
        "ter"
      ],
      [
        "s",
        "i"
      ],
      [
        "ad",
        "y"
      ],
      [
        "ri",
        "on"
      ],
      [
        "u",
        "ll"
      ],
      [
        "ne",
        "ver"
      ],
      [
        "K",
        "ing"
      ],
      [
        "on",
        "ly"
      ],
      [
        "c",
        "an"
      ],
      [
        "s",
        "word"
      ],
      [
        "w",
        "ant"
      ],
      [
        "co",
        "me"
      ],
      [
        "a",
        "u"
      ],
      [
        "e",
        "ven"
      ],
      [
        "th",
        "r"
      ],
      [
        "Ty",
        "rion"
      ],
      [
        "c",
        "he"
      ],
      [
        "ha",
        "r"
      ],
      [
        "W",
        "he"
      ],
      [
        "v",
        "o"
      ],
      [
        "f",
        "ather"
      ],
      [
        "m",
        "ade"
      ],
      [
        "in",
        "to"
      ],
      [
        "g",
        "r"
      ],
      [
        "W",
        "e"
      ],
      [
        "be",
        "fore"
      ],
      [
        "is",
        "t"
      ],
      [
        "l",
        "t"
      ],
      [
        "bro",
        "ther"
      ],
      [
        "h",
        "or"
      ],
      [
        "it",
        "e"
      ],
      [
        "d",
        "ay"
      ],
      [
        "sh",
        "ould"
      ],
      [
        "e",
        "en"
      ],
      [
        "th",
        "ought"
      ],
      [
        "re",
        "n"
      ],
      [
        "to",
        "ld"
      ],
      [
        "ey",
        "es"
      ],
      [
        "H",
        "is"
      ],
      [
        "d",
        "r"
      ],
      [
        "s",
        "l"
      ],
      [
        "a",
        "f"
      ],
      [
        "l",
        "ing"
      ],
      [
        "c",
        "all"
      ],
      [
        "p",
        "er"
      ],
      [
        "p",
        "s"
      ],
      [
        "g",
        "i"
      ],
      [
        "ar",
        "t"
      ],
      [
        "s",
        "hi"
      ],
      [
        "m",
        "ed"
      ],
      [
        "bl",
        "ood"
      ],
      [
        "i",
        "ck"
      ],
      [
        "in",
        "k"
      ],
      [
        "i",
        "ce"
      ],
      [
        "i",
        "on"
      ],
      [
        "ou",
        "n"
      ],
      [
        "s",
        "er"
      ],
      [
        "bl",
        "ack"
      ],
      [
        "ha",
        "s"
      ],
      [
        "whe",
        "re"
      ],
      [
        "M",
        "y"
      ],
      [
        "I",
        "f"
      ],
      [
        "it",
        "tle"
      ],
      [
        "f",
        "ace"
      ],
      [
        "le",
        "s"
      ],
      [
        "sa",
        "y"
      ],
      [
        "k",
        "ne"
      ],
      [
        "b",
        "b"
      ],
      [
        "g",
        "u"
      ],
      [
        "is",
        "h"
      ],
      [
        "i",
        "c"
      ],
      [
        "o",
        "ver"
      ],
      [
        "be",
        "t"
      ],
      [
        "ve",
        "s"
      ],
      [
        "c",
        "on"
      ],
      [
        "f",
        "t"
      ],
      [
        "t",
        "ain"
      ],
      [
        "d",
        "d"
      ],
      [
        "a",
        "i"
      ],
      [
        "m",
        "ight"
      ],
      [
        "p",
        "r"
      ],
      [
        "Whe",
        "n"
      ],
      [
        "thr",
        "ough"
      ],
      [
        "h",
        "ow"
      ],
      [
        "c",
        "hed"
      ],
      [
        "p",
        "le"
      ],
      [
        "re",
        "y"
      ],
      [
        "w",
        "ar"
      ],
      [
        "w",
        "ood"
      ],
      [
        "u",
        "st"
      ],
      [
        "w",
        "h"
      ],
      [
        "he",
        "re"
      ],
      [
        "st",
        "ill"
      ],
      [
        "t",
        "ru"
      ],
      [
        "mu",
        "st"
      ],
      [
        "s",
        "ed"
      ],
      [
        "w",
        "or"
      ],
      [
        "bo",
        "y"
      ],
      [
        "ro",
        "ss"
      ],
      [
        "it",
        "s"
      ],
      [
        "g",
        "g"
      ],
      [
        "c",
        "hi"
      ],
      [
        "E",
        "R"
      ],
      [
        "h",
        "un"
      ],
      [
        "c",
        "ame"
      ],
      [
        "le",
        "ss"
      ],
      [
        "P",
        "age"
      ],
      [
        "st",
        "e"
      ],
      [
        "S",
        "o"
      ],
      [
        "to",
        "r"
      ],
      [
        "T",
        "hat"
      ],
      [
        "ne",
        "ed"
      ],
      [
        "est",
        "er"
      ],
      [
        "too",
        "k"
      ],
      [
        "d",
        "s"
      ],
      [
        "ab",
        "out"
      ],
      [
        "s",
        "on"
      ],
      [
        "m",
        "a"
      ],
      [
        "hor",
        "se"
      ],
      [
        "g",
        "ir"
      ],
      [
        "re",
        "am"
      ],
      [
        "s",
        "k"
      ],
      [
        "ri",
        "ght"
      ],
      [
        "an",
        "g"
      ],
      [
        "f",
        "l"
      ],
      [
        "es",
        "s"
      ],
      [
        "g",
        "ood"
      ],
      [
        "b",
        "le"
      ],
      [
        "w",
        "ard"
      ],
      [
        "..",
        "."
      ],
      [
        "en",
        "e"
      ],
      [
        "gir",
        "l"
      ],
      [
        "p",
        "en"
      ],
      [
        "u",
        "l"
      ],
      [
        "c",
        "l"
      ],
      [
        "w",
        "hi"
      ],
      [
        "b",
        "re"
      ],
      [
        "p",
        "ro"
      ],
      [
        "l",
        "ittle"
      ],
      [
        "turn",
        "ed"
      ],
      [
        "a",
        "way"
      ],
      [
        "k",
        "night"
      ],
      [
        "an",
        "ce"
      ],
      [
        "go",
        "ld"
      ],
      [
        "ha",
        "ir"
      ],
      [
        "de",
        "ad"
      ],
      [
        "au",
        "ght"
      ],
      [
        "t",
        "y"
      ],
      [
        "A",
        "ry"
      ],
      [
        "W",
        "hat"
      ],
      [
        "m",
        "ber"
      ],
      [
        "You",
        "r"
      ],
      [
        "the",
        "n"
      ],
      [
        "m",
        "ent"
      ],
      [
        "The",
        "re"
      ],
      [
        "m",
        "on"
      ],
      [
        "in",
        "ce"
      ],
      [
        "t",
        "wo"
      ],
      [
        "w",
        "ent"
      ],
      [
        "on",
        "ce"
      ],
      [
        "ha",
        "lf"
      ],
      [
        "ir",
        "st"
      ],
      [
        "qu",
        "een"
      ],
      [
        "b",
        "ed"
      ],
      [
        "D",
        "o"
      ],
      [
        "th",
        "ough"
      ],
      [
        "w",
        "all"
      ],
      [
        "mo",
        "st"
      ],
      [
        "sa",
        "w"
      ],
      [
        "in",
        "e"
      ],
      [
        "ever",
        "y"
      ],
      [
        "n",
        "or"
      ],
      [
        "ly",
        "n"
      ],
      [
        "fe",
        "ll"
      ],
      [
        "Ary",
        "a"
      ],
      [
        "s",
        "il"
      ],
      [
        "ac",
        "h"
      ],
      [
        "ear",
        "s"
      ],
      [
        "f",
        "ing"
      ],
      [
        "m",
        "ake"
      ],
      [
        "chi",
        "ld"
      ],
      [
        "loo",
        "k"
      ],
      [
        "him",
        "self"
      ],
      [
        "ri",
        "ed"
      ],
      [
        "ai",
        "me"
      ],
      [
        "o",
        "m"
      ],
      [
        "co",
        "mm"
      ],
      [
        "J",
        "aime"
      ],
      [
        "p",
        "t"
      ],
      [
        "s",
        "we"
      ],
      [
        "H",
        "er"
      ],
      [
        "t",
        "ake"
      ],
      [
        "a",
        "le"
      ],
      [
        "G",
        "r"
      ],
      [
        "le",
        "t"
      ],
      [
        "w",
        "on"
      ],
      [
        "u",
        "e"
      ],
      [
        "fi",
        "re"
      ],
      [
        "li",
        "ght"
      ],
      [
        "u",
        "m"
      ],
      [
        "er",
        "ed"
      ],
      [
        "call",
        "ed"
      ],
      [
        "af",
        "ter"
      ],
      [
        "i",
        "g"
      ],
      [
        "p",
        "re"
      ],
      [
        "mu",
        "ch"
      ],
      [
        "c",
        "r"
      ],
      [
        "k",
        "ill"
      ],
      [
        "un",
        "der"
      ],
      [
        "th",
        "ree"
      ],
      [
        "loo",
        "ked"
      ],
      [
        "v",
        "ing"
      ],
      [
        "as",
        "ked"
      ],
      [
        "or",
        "t"
      ],
      [
        "B",
        "ran"
      ],
      [
        "c",
        "ap"
      ],
      [
        "f",
        "oo"
      ],
      [
        "B",
        "ut"
      ],
      [
        "en",
        "ough"
      ],
      [
        "e",
        "ld"
      ],
      [
        "p",
        "ped"
      ],
      [
        "L",
        "ann"
      ],
      [
        "c",
        "ha"
      ],
      [
        "r",
        "id"
      ],
      [
        "g",
        "ave"
      ],
      [
        "kne",
        "w"
      ],
      [
        "te",
        "ll"
      ],
      [
        "he",
        "l"
      ],
      [
        "le",
        "ft"
      ],
      [
        "ou",
        "th"
      ],
      [
        "ar",
        "s"
      ],
      [
        "ar",
        "ed"
      ],
      [
        "he",
        "ard"
      ],
      [
        "un",
        "t"
      ],
      [
        "ll",
        "ow"
      ],
      [
        "wat",
        "er"
      ],
      [
        "c",
        "ast"
      ],
      [
        "ab",
        "le"
      ],
      [
        "dr",
        "ag"
      ],
      [
        "r",
        "on"
      ],
      [
        "w",
        "a"
      ],
      [
        "r",
        "un"
      ],
      [
        "h",
        "ind"
      ],
      [
        "c",
        "le"
      ],
      [
        "clo",
        "ak"
      ],
      [
        "a",
        "ir"
      ],
      [
        "D",
        "any"
      ],
      [
        "D",
        "a"
      ],
      [
        "S",
        "an"
      ],
      [
        "San",
        "sa"
      ],
      [
        "se",
        "i"
      ],
      [
        "t",
        "en"
      ],
      [
        "d",
        "ark"
      ],
      [
        "s",
        "ing"
      ],
      [
        "wo",
        "man"
      ],
      [
        "f",
        "irst"
      ],
      [
        "L",
        "ady"
      ],
      [
        "j",
        "ust"
      ],
      [
        "St",
        "ark"
      ],
      [
        "w",
        "ind"
      ],
      [
        "wh",
        "ite"
      ],
      [
        "ou",
        "se"
      ],
      [
        "gre",
        "at"
      ],
      [
        "B",
        "l"
      ],
      [
        "Lann",
        "ister"
      ],
      [
        "M",
        "a"
      ],
      [
        "gu",
        "ard"
      ],
      [
        "la",
        "u"
      ],
      [
        "t",
        "re"
      ],
      [
        "in",
        "s"
      ],
      [
        "ar",
        "ound"
      ],
      [
        "he",
        "ar"
      ],
      [
        "H",
        "o"
      ],
      [
        "s",
        "le"
      ],
      [
        "r",
        "ong"
      ],
      [
        "f",
        "ound"
      ],
      [
        "ene",
        "ath"
      ],
      [
        "t",
        "ing"
      ],
      [
        "s",
        "qu"
      ],
      [
        "s",
        "to"
      ],
      [
        "C",
        "er"
      ],
      [
        "an",
        "s"
      ],
      [
        "in",
        "ter"
      ],
      [
        "is",
        "e"
      ],
      [
        "g",
        "l"
      ],
      [
        "th",
        "ink"
      ],
      [
        "e",
        "x"
      ],
      [
        "b",
        "urn"
      ],
      [
        "O",
        "n"
      ],
      [
        "har",
        "d"
      ],
      [
        "m",
        "ay"
      ],
      [
        "n",
        "ame"
      ],
      [
        "ke",
        "ep"
      ],
      [
        "st",
        "one"
      ],
      [
        "be",
        "hind"
      ],
      [
        "m",
        "ar"
      ],
      [
        "go",
        "ds"
      ],
      [
        "ac",
        "ross"
      ],
      [
        "hand",
        "s"
      ],
      [
        "n",
        "ed"
      ],
      [
        "Cer",
        "sei"
      ],
      [
        "sp",
        "e"
      ],
      [
        "Gr",
        "ace"
      ],
      [
        "il",
        "ed"
      ],
      [
        "le",
        "g"
      ],
      [
        "s",
        "ent"
      ],
      [
        "comm",
        "and"
      ],
      [
        "g",
        "et"
      ],
      [
        "as",
        "ter"
      ],
      [
        "fe",
        "et"
      ],
      [
        "l",
        "ast"
      ],
      [
        "co",
        "m"
      ],
      [
        "g",
        "er"
      ],
      [
        "k",
        "s"
      ],
      [
        "it",
        "y"
      ],
      [
        "st",
        "ep"
      ],
      [
        "b",
        "eneath"
      ],
      [
        "ber",
        "t"
      ],
      [
        "way",
        "s"
      ],
      [
        "again",
        "st"
      ],
      [
        "k",
        "en"
      ],
      [
        "St",
        "ann"
      ],
      [
        "A",
        "s"
      ],
      [
        "Stann",
        "is"
      ],
      [
        "So",
        "me"
      ],
      [
        "be",
        "g"
      ],
      [
        "c",
        "ar"
      ],
      [
        "m",
        "s"
      ],
      [
        "I",
        "n"
      ],
      [
        "see",
        "med"
      ],
      [
        "i",
        "es"
      ],
      [
        "on",
        "es"
      ],
      [
        "an",
        "other"
      ],
      [
        "j",
        "o"
      ],
      [
        "p",
        "ut"
      ],
      [
        "C",
        "ate"
      ],
      [
        "Cate",
        "lyn"
      ],
      [
        "W",
        "h"
      ],
      [
        "win",
        "e"
      ],
      [
        "th",
        "o"
      ],
      [
        "Ro",
        "bert"
      ],
      [
        "sm",
        "all"
      ],
      [
        "f",
        "ind"
      ],
      [
        "T",
        "his"
      ],
      [
        "l",
        "ow"
      ],
      [
        "me",
        "mber"
      ],
      [
        "s",
        "ister"
      ],
      [
        "c",
        "er"
      ],
      [
        "Ro",
        "bb"
      ],
      [
        "do",
        "or"
      ],
      [
        "t",
        "r"
      ],
      [
        "d",
        "red"
      ],
      [
        "C",
        "o"
      ],
      [
        "w",
        "n"
      ],
      [
        "O",
        "N"
      ],
      [
        "d",
        "one"
      ],
      [
        "g",
        "ed"
      ],
      [
        "T",
        "h"
      ],
      [
        "f",
        "f"
      ],
      [
        "S",
        "am"
      ],
      [
        "o",
        "pen"
      ],
      [
        "d",
        "on"
      ],
      [
        "at",
        "tle"
      ],
      [
        "b",
        "u"
      ],
      [
        "you",
        "n"
      ],
      [
        "d",
        "ri"
      ],
      [
        "at",
        "ter"
      ],
      [
        "b",
        "ow"
      ],
      [
        "l",
        "and"
      ],
      [
        "li",
        "e"
      ],
      [
        "m",
        "er"
      ],
      [
        "ver",
        "y"
      ],
      [
        "d",
        "is"
      ],
      [
        "re",
        "m"
      ],
      [
        "f",
        "le"
      ],
      [
        "hun",
        "dred"
      ],
      [
        "u",
        "re"
      ],
      [
        "man",
        "y"
      ],
      [
        "re",
        "st"
      ],
      [
        "is",
        "ed"
      ],
      [
        "at",
        "ch"
      ],
      [
        "too",
        "d"
      ],
      [
        "cast",
        "le"
      ],
      [
        "c",
        "ed"
      ],
      [
        "H",
        "ar"
      ],
      [
        "up",
        "on"
      ],
      [
        "J",
        "off"
      ],
      [
        "t",
        "ak"
      ],
      [
        "d",
        "aught"
      ],
      [
        "w",
        "ed"
      ],
      [
        "g",
        "ar"
      ],
      [
        "pl",
        "ace"
      ],
      [
        "tho",
        "se"
      ],
      [
        "co",
        "ld"
      ],
      [
        "se",
        "en"
      ],
      [
        "s",
        "ound"
      ],
      [
        "as",
        "e"
      ],
      [
        "f",
        "ight"
      ],
      [
        "a",
        "v"
      ],
      [
        "f",
        "ul"
      ],
      [
        "o",
        "s"
      ],
      [
        "A",
        "R"
      ],
      [
        "A",
        "ll"
      ],
      [
        "a",
        "h"
      ],
      [
        "W",
        "inter"
      ],
      [
        "vo",
        "ice"
      ],
      [
        "a",
        "ld"
      ],
      [
        "g",
        "one"
      ],
      [
        "re",
        "member"
      ],
      [
        "go",
        "t"
      ],
      [
        "gi",
        "ve"
      ],
      [
        "f",
        "all"
      ],
      [
        "l",
        "s"
      ],
      [
        "y",
        "et"
      ],
      [
        "c",
        "our"
      ],
      [
        "N",
        "ed"
      ],
      [
        "st",
        "and"
      ],
      [
        "ck",
        "ed"
      ],
      [
        "ho",
        "ld"
      ],
      [
        "l",
        "ady"
      ],
      [
        "W",
        "all"
      ],
      [
        "we",
        "en"
      ],
      [
        "M",
        "o"
      ],
      [
        "as",
        "s"
      ],
      [
        "H",
        "i"
      ],
      [
        "M",
        "ar"
      ],
      [
        "y",
        "ears"
      ],
      [
        "en",
        "ed"
      ],
      [
        "i",
        "le"
      ],
      [
        "al",
        "ways"
      ],
      [
        "c",
        "re"
      ],
      [
        "m",
        "outh"
      ],
      [
        "c",
        "ho"
      ],
      [
        "i",
        "re"
      ],
      [
        "unt",
        "il"
      ],
      [
        "f",
        "ull"
      ],
      [
        "le",
        "ave"
      ],
      [
        "Bl",
        "ack"
      ],
      [
        "y",
        "e"
      ],
      [
        "on",
        "d"
      ],
      [
        "bet",
        "ween"
      ],
      [
        "Winter",
        "fell"
      ],
      [
        "so",
        "on"
      ],
      [
        "c",
        "oun"
      ],
      [
        "word",
        "s"
      ],
      [
        "y",
        "n"
      ],
      [
        "G",
        "re"
      ],
      [
        "s",
        "tood"
      ],
      [
        "wo",
        "lf"
      ],
      [
        "H",
        "ow"
      ],
      [
        "en",
        "ly"
      ],
      [
        "mo",
        "ther"
      ],
      [
        "bet",
        "ter"
      ],
      [
        "B",
        "ar"
      ],
      [
        "ce",
        "ll"
      ],
      [
        "k",
        "n"
      ],
      [
        "gre",
        "y"
      ],
      [
        "sha",
        "ll"
      ],
      [
        "s",
        "n"
      ],
      [
        "n",
        "ing"
      ],
      [
        "ll",
        "y"
      ],
      [
        "vo",
        "s"
      ],
      [
        "ha",
        "ps"
      ],
      [
        "r",
        "ag"
      ],
      [
        "sa",
        "me"
      ],
      [
        "swe",
        "et"
      ],
      [
        "wall",
        "s"
      ],
      [
        "ing",
        "s"
      ],
      [
        "b",
        "attle"
[...]
